{
  "version": "1.0",
  "truncation": {
    "direction": "Right",
    "max_length": 512,
    "strategy": "LongestFirst",
    "stride": 0
  },
  "padding": null,
  "added_tokens": [
    {
      "id": 0,
      "content": "[PAD]",
      "single_word": false,
      "lstrip": false,
      "rstrip": false,
      "normalized": false,
      "special": true
    },
    {
      "id": 1,
      "content": "[UNK]",
      "single_word": false,
      "lstrip": false,
      "rstrip": false,
      "normalized": false,
      "special": true
    },
    {
      "id": 2,
      "content": "[CLS]",
      "single_word": false,
      "lstrip": false,
      "rstrip": false,
      "normalized": false,
      "special": true
    },
    {
      "id": 3,
      "content": "[SEP]",
      "single_word": false,
      "lstrip": false,
      "rstrip": false,
      "normalized": false,
      "special": true
    },
    {
      "id": 4,
      "content": "[MASK]",
      "single_word": false,
      "lstrip": false,
      "rstrip": false,
      "normalized": false,
      "special": true
    }
  ],
  "normalizer": {
    "type": "BertNormalizer",
    "clean_text": true,
    "handle_chinese_chars": true,
    "strip_accents": null,
    "lowercase": false
  },
  "pre_tokenizer": {
    "type": "BertPreTokenizer"
  },
  "post_processor": {
    "type": "TemplateProcessing",
    "single": [
      {
        "SpecialToken": {
          "id": "[CLS]",
          "type_id": 0
        }
      },
      {
        "Sequence": {
          "id": "A",
          "type_id": 0
        }
      },
      {
        "SpecialToken": {
          "id": "[SEP]",
          "type_id": 0
        }
      }
    ],
    "pair": [
      {
        "SpecialToken": {
          "id": "[CLS]",
          "type_id": 0
        }
      },
      {
        "Sequence": {
          "id": "A",
          "type_id": 0
        }
      },
      {
        "SpecialToken": {
          "id": "[SEP]",
          "type_id": 0
        }
      },
      {
        "Sequence": {
          "id": "B",
          "type_id": 1
        }
      },
      {
        "SpecialToken": {
          "id": "[SEP]",
          "type_id": 1
        }
      }
    ],
    "special_tokens": {
      "[CLS]": {
        "id": "[CLS]",
        "ids": [
          2
        ],
        "tokens": [
          "[CLS]"
        ]
      },
      "[SEP]": {
        "id": "[SEP]",
        "ids": [
          3
        ],
        "tokens": [
          "[SEP]"
        ]
      }
    }
  },
  "decoder": {
    "type": "WordPiece",
    "prefix": "##",
    "cleanup": true
  },
  "model": {
    "type": "WordPiece",
    "unk_token": "[UNK]",
    "continuing_subword_prefix": "##",
    "max_input_chars_per_word": 100,
    "vocab": {
      "[PAD]": 0,
      "[UNK]": 1,
      "[CLS]": 2,
      "[SEP]": 3,
      "[MASK]": 4,
      "!": 5,
      "\"": 6,
      "#": 7,
      "$": 8,
      "%": 9,
      "&": 10,
      "'": 11,
      "(": 12,
      ")": 13,
      "*": 14,
      "+": 15,
      ",": 16,
      "-": 17,
      ".": 18,
      "/": 19,
      "0": 20,
      "1": 21,
      "2": 22,
      "3": 23,
      "4": 24,
      "5": 25,
      "6": 26,
      "7": 27,
      "8": 28,
      "9": 29,
      ":": 30,
      ";": 31,
      "<": 32,
      "=": 33,
      ">": 34,
      "?": 35,
      "@": 36,
      "A": 37,
      "B": 38,
      "C": 39,
      "D": 40,
      "E": 41,
      "F": 42,
      "G": 43,
      "H": 44,
      "I": 45,
      "J": 46,
      "K": 47,
      "L": 48,
      "M": 49,
      "N": 50,
      "O": 51,
      "P": 52,
      "Q": 53,
      "R": 54,
      "S": 55,
      "T": 56,
      "U": 57,
      "V": 58,
      "W": 59,
      "X": 60,
      "Y": 61,
      "Z": 62,
      "[": 63,
      "\\": 64,
      "]": 65,
      "^": 66,
      "_": 67,
      "`": 68,
      "a": 69,
      "b": 70,
      "c": 71,
      "d": 72,
      "e": 73,
      "f": 74,
      "g": 75,
      "h": 76,
      "i": 77,
      "j": 78,
      "k": 79,
      "l": 80,
      "m": 81,
      "n": 82,
      "o": 83,
      "p": 84,
      "q": 85,
      "r": 86,
      "s": 87,
      "t": 88,
      "u": 89,
      "v": 90,
      "w": 91,
      "x": 92,
      "y": 93,
      "z": 94,
      "{": 95,
      "}": 96,
      "~": 97,
      "¡": 98,
      "¢": 99,
      "£": 100,
      "¤": 101,
      "¥": 102,
      "§": 103,
      "¨": 104,
      "©": 105,
      "ª": 106,
      "«": 107,
      "¬": 108,
      "®": 109,
      "¯": 110,
      "°": 111,
      "±": 112,
      "²": 113,
      "³": 114,
      "´": 115,
      "µ": 116,
      "¶": 117,
      "·": 118,
      "¸": 119,
      "¹": 120,
      "º": 121,
      "»": 122,
      "¼": 123,
      "½": 124,
      "¾": 125,
      "À": 126,
      "Á": 127,
      "Â": 128,
      "Ã": 129,
      "Ä": 130,
      "Å": 131,
      "Æ": 132,
      "Ç": 133,
      "È": 134,
      "É": 135,
      "Ê": 136,
      "Í": 137,
      "Î": 138,
      "Ï": 139,
      "Ð": 140,
      "Ñ": 141,
      "Ò": 142,
      "Ó": 143,
      "Ô": 144,
      "Õ": 145,
      "Ö": 146,
      "×": 147,
      "Ø": 148,
      "Ù": 149,
      "Ú": 150,
      "Û": 151,
      "Ü": 152,
      "Ý": 153,
      "Þ": 154,
      "ß": 155,
      "à": 156,
      "á": 157,
      "â": 158,
      "ã": 159,
      "ä": 160,
      "å": 161,
      "æ": 162,
      "ç": 163,
      "è": 164,
      "é": 165,
      "ê": 166,
      "ë": 167,
      "ì": 168,
      "í": 169,
      "î": 170,
      "ï": 171,
      "ð": 172,
      "ñ": 173,
      "ò": 174,
      "ó": 175,
      "ô": 176,
      "õ": 177,
      "ö": 178,
      "÷": 179,
      "ø": 180,
      "ù": 181,
      "ú": 182,
      "û": 183,
      "ü": 184,
      "þ": 185,
      "Ā": 186,
      "ā": 187,
      "Ą": 188,
      "Č": 189,
      "Ď": 190,
      "ď": 191,
      "đ": 192,
      "Ē": 193,
      "Ė": 194,
      "ė": 195,
      "Ę": 196,
      "ę": 197,
      "Ğ": 198,
      "ğ": 199,
      "Ģ": 200,
      "Ī": 201,
      "Į": 202,
      "į": 203,
      "İ": 204,
      "ı": 205,
      "Ĵ": 206,
      "Ķ": 207,
      "Ĺ": 208,
      "Ļ": 209,
      "Ľ": 210,
      "ľ": 211,
      "Ł": 212,
      "ō": 213,
      "Ő": 214,
      "Œ": 215,
      "œ": 216,
      "Ŕ": 217,
      "ŕ": 218,
      "Ř": 219,
      "ř": 220,
      "Ś": 221,
      "ś": 222,
      "ŝ": 223,
      "Ş": 224,
      "ş": 225,
      "Š": 226,
      "š": 227,
      "Ť": 228,
      "ť": 229,
      "Ŧ": 230,
      "Ū": 231,
      "ū": 232,
      "ů": 233,
      "Ÿ": 234,
      "Ź": 235,
      "ź": 236,
      "Ż": 237,
      "ż": 238,
      "Ž": 239,
      "ž": 240,
      "ƒ": 241,
      "Ʋ": 242,
      "ț": 243,
      "ɢ": 244,
      "ʺ": 245,
      "ʿ": 246,
      "ˆ": 247,
      "ˇ": 248,
      "ˋ": 249,
      "˙": 250,
      "˚": 251,
      "˛": 252,
      "˝": 253,
      "̃": 254,
      ";": 255,
      "΄": 256,
      "·": 257,
      "Β": 258,
      "Δ": 259,
      "Ζ": 260,
      "Η": 261,
      "Λ": 262,
      "Ν": 263,
      "Σ": 264,
      "Φ": 265,
      "Χ": 266,
      "Ψ": 267,
      "Ω": 268,
      "α": 269,
      "β": 270,
      "γ": 271,
      "δ": 272,
      "ε": 273,
      "ζ": 274,
      "η": 275,
      "θ": 276,
      "λ": 277,
      "μ": 278,
      "ν": 279,
      "ξ": 280,
      "ο": 281,
      "π": 282,
      "ρ": 283,
      "σ": 284,
      "τ": 285,
      "φ": 286,
      "χ": 287,
      "ψ": 288,
      "ω": 289,
      "Ϙ": 290,
      "Ϯ": 291,
      "Ё": 292,
      "Ђ": 293,
      "Ѓ": 294,
      "Є": 295,
      "Ѕ": 296,
      "І": 297,
      "Ї": 298,
      "Ј": 299,
      "Љ": 300,
      "Њ": 301,
      "Ћ": 302,
      "Ќ": 303,
      "Ў": 304,
      "Џ": 305,
      "А": 306,
      "Б": 307,
      "В": 308,
      "Г": 309,
      "Д": 310,
      "Е": 311,
      "Ж": 312,
      "З": 313,
      "И": 314,
      "Й": 315,
      "К": 316,
      "Л": 317,
      "М": 318,
      "Н": 319,
      "О": 320,
      "П": 321,
      "Р": 322,
      "С": 323,
      "Т": 324,
      "У": 325,
      "Ф": 326,
      "Х": 327,
      "Ц": 328,
      "Ч": 329,
      "Ш": 330,
      "Щ": 331,
      "Ъ": 332,
      "Ы": 333,
      "Ь": 334,
      "Э": 335,
      "Ю": 336,
      "Я": 337,
      "а": 338,
      "б": 339,
      "в": 340,
      "г": 341,
      "д": 342,
      "е": 343,
      "ж": 344,
      "з": 345,
      "и": 346,
      "й": 347,
      "к": 348,
      "л": 349,
      "м": 350,
      "н": 351,
      "о": 352,
      "п": 353,
      "р": 354,
      "с": 355,
      "т": 356,
      "у": 357,
      "ф": 358,
      "х": 359,
      "ц": 360,
      "ч": 361,
      "ш": 362,
      "щ": 363,
      "ъ": 364,
      "ы": 365,
      "ь": 366,
      "э": 367,
      "ю": 368,
      "я": 369,
      "ѐ": 370,
      "ё": 371,
      "ђ": 372,
      "ѓ": 373,
      "є": 374,
      "ѕ": 375,
      "і": 376,
      "ї": 377,
      "ј": 378,
      "љ": 379,
      "њ": 380,
      "ќ": 381,
      "ў": 382,
      "џ": 383,
      "Ѳ": 384,
      "Ґ": 385,
      "ґ": 386,
      "ғ": 387,
      "Қ": 388,
      "ң": 389,
      "Ұ": 390,
      "Ә": 391,
      "Ө": 392,
      "ӯ": 393,
      "Չ": 394,
      "լ": 395,
      "։": 396,
      "ה": 397,
      "כ": 398,
      "ף": 399,
      "פ": 400,
      "؛": 401,
      "إ": 402,
      "خ": 403,
      "ر": 404,
      "ز": 405,
      "ع": 406,
      "ق": 407,
      "م": 408,
      "٠": 409,
      "٧": 410,
      "٩": 411,
      "ٱ": 412,
      "پ": 413,
      "چ": 414,
      "۞": 415,
      "अ": 416,
      "ल": 417,
      "ह": 418,
      "ഀ": 419,
      "฿": 420,
      "ჟ": 421,
      "ჰ": 422,
      "ባ": 423,
      "ቤ": 424,
      "ብ": 425,
      "ጋ": 426,
      "Ḥ": 427,
      "ḥ": 428,
      "Ỏ": 429,
      "ὁ": 430,
      "‐": 431,
      "‑": 432,
      "‒": 433,
      "–": 434,
      "—": 435,
      "―": 436,
      "‖": 437,
      "‗": 438,
      "‘": 439,
      "’": 440,
      "‚": 441,
      "‛": 442,
      "“": 443,
      "”": 444,
      "„": 445,
      "‟": 446,
      "†": 447,
      "‡": 448,
      "•": 449,
      "‣": 450,
      "‥": 451,
      "…": 452,
      "‧": 453,
      "‰": 454,
      "′": 455,
      "″": 456,
      "‹": 457,
      "›": 458,
      "※": 459,
      "⁄": 460,
      "€": 461,
      "№": 462,
      "™": 463,
      "Ω": 464,
      "Ⅲ": 465,
      "↑": 466,
      "→": 467,
      "⇒": 468,
      "∆": 469,
      "−": 470,
      "∗": 471,
      "∙": 472,
      "√": 473,
      "∞": 474,
      "∫": 475,
      "∼": 476,
      "≈": 477,
      "≤": 478,
      "≥": 479,
      "≪": 480,
      "─": 481,
      "═": 482,
      "╚": 483,
      "╬": 484,
      "■": 485,
      "□": 486,
      "▪": 487,
      "▲": 488,
      "▶": 489,
      "►": 490,
      "▼": 491,
      "◄": 492,
      "◆": 493,
      "◊": 494,
      "○": 495,
      "●": 496,
      "☆": 497,
      "☐": 498,
      "☞": 499,
      "♦": 500,
      "♫": 501,
      "✓": 502,
      "✕": 503,
      "✘": 504,
      "✜": 505,
      "❏": 506,
      "、": 507,
      "・": 508,
      "中": 509,
      "南": 510,
      "大": 511,
      "市": 512,
      "海": 513,
      "町": 514,
      "路": 515,
      "（": 516,
      "）": 517,
      "：": 518,
      "de": 519,
      "na": 520,
      "##s": 521,
      "la": 522,
      "en": 523,
      "in": 524,
      "sa": 525,
      "##a": 526,
      "на": 527,
      "the": 528,
      "to": 529,
      "se": 530,
      "##n": 531,
      "##e": 532,
      "da": 533,
      "##i": 534,
      "je": 535,
      "le": 536,
      "di": 537,
      "te": 538,
      "que": 539,
      "of": 540,
      "un": 541,
      "and": 542,
      "##t": 543,
      "an": 544,
      "is": 545,
      "og": 546,
      "ka": 547,
      "do": 548,
      "die": 549,
      "##m": 550,
      "ya": 551,
      "on": 552,
      "et": 553,
      "##r": 554,
      "##o": 555,
      "##u": 556,
      "for": 557,
      "at": 558,
      "er": 559,
      "да": 560,
      "10": 561,
      "ja": 562,
      "no": 563,
      "van": 564,
      "dan": 565,
      "li": 566,
      "si": 567,
      "za": 568,
      "за": 569,
      "para": 570,
      "ni": 571,
      "der": 572,
      "##en": 573,
      "el": 574,
      "не": 575,
      "du": 576,
      "ki": 577,
      "ng": 578,
      "ny": 579,
      "ar": 580,
      "ne": 581,
      "ta": 582,
      "##k": 583,
      "com": 584,
      "се": 585,
      "me": 586,
      "ir": 587,
      "und": 588,
      "den": 589,
      "##l": 590,
      "##y": 591,
      "##d": 592,
      "per": 593,
      "ma": 594,
      "as": 595,
      "il": 596,
      "wa": 597,
      "##na": 598,
      "med": 599,
      "al": 600,
      "su": 601,
      "ve": 602,
      "ke": 603,
      "les": 604,
      "20": 605,
      "om": 606,
      "12": 607,
      "des": 608,
      "por": 609,
      "det": 610,
      "The": 611,
      "15": 612,
      "##ni": 613,
      "##и": 614,
      "##an": 615,
      "30": 616,
      "it": 617,
      "##а": 618,
      "av": 619,
      "you": 620,
      "ti": 621,
      "##te": 622,
      "11": 623,
      "##j": 624,
      "##er": 625,
      "op": 626,
      "##ta": 627,
      "una": 628,
      "##da": 629,
      "La": 630,
      "##g": 631,
      "that": 632,
      "##м": 633,
      "um": 634,
      "by": 635,
      "har": 636,
      "##ne": 637,
      "with": 638,
      "pa": 639,
      "##е": 640,
      "2019": 641,
      "od": 642,
      "az": 643,
      "att": 644,
      "so": 645,
      "##h": 646,
      "ou": 647,
      "be": 648,
      "##ra": 649,
      "от": 650,
      "ba": 651,
      "##le": 652,
      "bi": 653,
      "по": 654,
      "es": 655,
      "##la": 656,
      "18": 657,
      "##ga": 658,
      "14": 659,
      "16": 660,
      "##ka": 661,
      "во": 662,
      "var": 663,
      "ha": 664,
      "em": 665,
      "##in": 666,
      "De": 667,
      "00": 668,
      "000": 669,
      "est": 670,
      "13": 671,
      "ak": 672,
      "los": 673,
      "va": 674,
      "sem": 675,
      "are": 676,
      "##de": 677,
      "go": 678,
      "##н": 679,
      "##es": 680,
      "##ng": 681,
      "au": 682,
      "Ang": 683,
      "17": 684,
      "##ti": 685,
      "##re": 686,
      "25": 687,
      "100": 688,
      "##li": 689,
      "для": 690,
      "your": 691,
      "was": 692,
      "we": 693,
      "mi": 694,
      "##у": 695,
      "met": 696,
      "os": 697,
      "po": 698,
      "##ma": 699,
      "50": 700,
      "ini": 701,
      "19": 702,
      "ei": 703,
      "non": 704,
      "or": 705,
      "pour": 706,
      "dat": 707,
      "нь": 708,
      "par": 709,
      "ai": 710,
      "2018": 711,
      "24": 712,
      "##ch": 713,
      "##ы": 714,
      "##те": 715,
      "до": 716,
      "од": 717,
      "zu": 718,
      "das": 719,
      "21": 720,
      "##z": 721,
      "##ing": 722,
      "##ja": 723,
      "sing": 724,
      "##та": 725,
      "vi": 726,
      "une": 727,
      "En": 728,
      "von": 729,
      "ing": 730,
      "In": 731,
      "##et": 732,
      "##т": 733,
      "mit": 734,
      "this": 735,
      "22": 736,
      "##mi": 737,
      "##on": 738,
      "##ri": 739,
      "nu": 740,
      "sur": 741,
      "mu": 742,
      "##si": 743,
      "have": 744,
      "bu": 745,
      "www": 746,
      "2017": 747,
      "che": 748,
      "from": 749,
      "tu": 750,
      "или": 751,
      "dia": 752,
      "##je": 753,
      "40": 754,
      "##й": 755,
      "all": 756,
      "ia": 757,
      "mo": 758,
      "23": 759,
      "Na": 760,
      "##ko": 761,
      "##lar": 762,
      "pe": 763,
      "##no": 764,
      "##is": 765,
      "he": 766,
      "ser": 767,
      "del": 768,
      "Die": 769,
      "ji": 770,
      "##c": 771,
      "##х": 772,
      "та": 773,
      "##us": 774,
      "2016": 775,
      "Sie": 776,
      "##do": 777,
      "##se": 778,
      "oo": 779,
      "dans": 780,
      "Google": 781,
      "air": 782,
      "man": 783,
      "##ya": 784,
      "ce": 785,
      "ag": 786,
      "can": 787,
      "km": 788,
      "что": 789,
      "што": 790,
      "ea": 791,
      "will": 792,
      "##ar": 793,
      "##nya": 794,
      "со": 795,
      "qui": 796,
      "##st": 797,
      "las": 798,
      "##я": 799,
      "##b": 800,
      "El": 801,
      "##p": 802,
      "not": 803,
      "sin": 804,
      "ana": 805,
      "##em": 806,
      "ao": 807,
      "am": 808,
      "##і": 809,
      "men": 810,
      "dos": 811,
      "ga": 812,
      "2015": 813,
      "lo": 814,
      "##wa": 815,
      "re": 816,
      "ua": 817,
      "##sa": 818,
      "son": 819,
      "Il": 820,
      "ze": 821,
      "##на": 822,
      "##о": 823,
      "28": 824,
      "09": 825,
      "ва": 826,
      "im": 827,
      "pas": 828,
      "26": 829,
      "Det": 830,
      "##v": 831,
      "till": 832,
      "dem": 833,
      "online": 834,
      "##ki": 835,
      "27": 836,
      "##to": 837,
      "##S": 838,
      "##me": 839,
      "##as": 840,
      "##A": 841,
      "##ia": 842,
      "Le": 843,
      "over": 844,
      "No": 845,
      "##lo": 846,
      "vous": 847,
      "ба": 848,
      "##va": 849,
      "care": 850,
      "##ke": 851,
      "sy": 852,
      "my": 853,
      "2014": 854,
      "mea": 855,
      "itu": 856,
      "her": 857,
      "##um": 858,
      "mais": 859,
      "##ho": 860,
      "29": 861,
      "con": 862,
      "##ce": 863,
      "60": 864,
      "net": 865,
      "##ve": 866,
      "fra": 867,
      "из": 868,
      "##é": 869,
      "дар": 870,
      "cho": 871,
      "Se": 872,
      "lub": 873,
      "pro": 874,
      "co": 875,
      "то": 876,
      "2013": 877,
      "more": 878,
      "##os": 879,
      "##ни": 880,
      "##om": 881,
      "dit": 882,
      "##ed": 883,
      "##ba": 884,
      "New": 885,
      "Bu": 886,
      "2012": 887,
      "##mo": 888,
      "may": 889,
      "##ca": 890,
      "31": 891,
      "plus": 892,
      "##í": 893,
      "alle": 894,
      "##ом": 895,
      "has": 896,
      "pri": 897,
      "Hotel": 898,
      "##it": 899,
      "fan": 900,
      "##nt": 901,
      "##za": 902,
      "##0": 903,
      "##di": 904,
      "##ă": 905,
      "video": 906,
      "са": 907,
      "ee": 908,
      "##2": 909,
      "2011": 910,
      "##kan": 911,
      "up": 912,
      "Facebook": 913,
      "It": 914,
      "To": 915,
      "##л": 916,
      "го": 917,
      "han": 918,
      "2010": 919,
      "##к": 920,
      "our": 921,
      "##ми": 922,
      "one": 923,
      "web": 924,
      "##то": 925,
      "##да": 926,
      "site": 927,
      "01": 928,
      "##ku": 929,
      "##at": 930,
      "##ha": 931,
      "Instagram": 932,
      "##от": 933,
      "Si": 934,
      "##ek": 935,
      "##ur": 936,
      "##f": 937,
      "tai": 938,
      "cov": 939,
      "##ка": 940,
      "##р": 941,
      "но": 942,
      "but": 943,
      "##га": 944,
      "We": 945,
      "как": 946,
      "500": 947,
      "ati": 948,
      "della": 949,
      "##E": 950,
      "35": 951,
      "##tu": 952,
      "##ul": 953,
      "##ов": 954,
      "##1": 955,
      "##ro": 956,
      "ки": 957,
      "ca": 958,
      "200": 959,
      "при": 960,
      "time": 961,
      "bei": 962,
      "##ie": 963,
      "##ju": 964,
      "cookies": 965,
      "kas": 966,
      "eu": 967,
      "##ся": 968,
      "http": 969,
      "ra": 970,
      "nos": 971,
      "##x": 972,
      "min": 973,
      "80": 974,
      "аз": 975,
      "about": 976,
      "Download": 977,
      "fi": 978,
      "data": 979,
      "##ci": 980,
      "Anda": 981,
      "##al": 982,
      "##не": 983,
      "45": 984,
      "nei": 985,
      "2009": 986,
      "##ler": 987,
      "cu": 988,
      "like": 989,
      "90": 990,
      "##go": 991,
      "##д": 992,
      "seo": 993,
      "Sa": 994,
      "##ak": 995,
      "08": 996,
      "##I": 997,
      "##ze": 998,
      "cha": 999,
      "see": 1000,
      "70": 1001,
      "new": 1002,
      "Un": 1003,
      "##ning": 1004,
      "2008": 1005,
      "their": 1006,
      "post": 1007,
      "inte": 1008,
      "##w": 1009,
      "they": 1010,
      "entre": 1011,
      "out": 1012,
      "ac": 1013,
      "ut": 1014,
      "##ji": 1015,
      "05": 1016,
      "##nu": 1017,
      "any": 1018,
      "##ны": 1019,
      "uz": 1020,
      "На": 1021,
      "You": 1022,
      "##O": 1023,
      "oli": 1024,
      "sam": 1025,
      "##dan": 1026,
      "##ë": 1027,
      "This": 1028,
      "##ли": 1029,
      "##á": 1030,
      "pre": 1031,
      "##man": 1032,
      "##zi": 1033,
      "Vi": 1034,
      "##jo": 1035,
      "##ly": 1036,
      "amb": 1037,
      "don": 1038,
      "си": 1039,
      "gen": 1040,
      "Je": 1041,
      "##T": 1042,
      "##ge": 1043,
      "Les": 1044,
      "##лар": 1045,
      "##ment": 1046,
      "##г": 1047,
      "ci": 1048,
      "aus": 1049,
      "32": 1050,
      "##ye": 1051,
      "03": 1052,
      "##ren": 1053,
      "##но": 1054,
      "02": 1055,
      "°C": 1056,
      "II": 1057,
      "nou": 1058,
      "##ю": 1059,
      "ye": 1060,
      "##yo": 1061,
      "##3": 1062,
      "07": 1063,
      "06": 1064,
      "vir": 1065,
      "##N": 1066,
      "dei": 1067,
      "04": 1068,
      "Is": 1069,
      "##M": 1070,
      "##el": 1071,
      "mis": 1072,
      "##ndo": 1073,
      "##we": 1074,
      "ad": 1075,
      "2007": 1076,
      "это": 1077,
      "он": 1078,
      "nas": 1079,
      "hat": 1080,
      "без": 1081,
      "##C": 1082,
      "##R": 1083,
      "##ir": 1084,
      "##D": 1085,
      "email": 1086,
      "which": 1087,
      "Stock": 1088,
      "TV": 1089,
      "also": 1090,
      "ще": 1091,
      "his": 1092,
      "if": 1093,
      "##ny": 1094,
      "##с": 1095,
      "##в": 1096,
      "че": 1097,
      "##ын": 1098,
      "sig": 1099,
      "Li": 1100,
      "##ла": 1101,
      "just": 1102,
      "##un": 1103,
      "##mu": 1104,
      "lang": 1105,
      "##ina": 1106,
      "As": 1107,
      "##5": 1108,
      "мен": 1109,
      "##L": 1110,
      "так": 1111,
      "Der": 1112,
      "33": 1113,
      "Du": 1114,
      "300": 1115,
      "##ov": 1116,
      "era": 1117,
      "дека": 1118,
      "все": 1119,
      "##ки": 1120,
      "##ó": 1121,
      "ons": 1122,
      "via": 1123,
      "US": 1124,
      "##gi": 1125,
      "##id": 1126,
      "fun": 1127,
      "##4": 1128,
      "2000": 1129,
      "36": 1130,
      "br": 1131,
      "##P": 1132,
      "Ma": 1133,
      "mail": 1134,
      "##ти": 1135,
      "under": 1136,
      "Ko": 1137,
      "Den": 1138,
      "word": 1139,
      "Az": 1140,
      "Di": 1141,
      "qu": 1142,
      "ere": 1143,
      "Mae": 1144,
      "##lik": 1145,
      "##am": 1146,
      "2006": 1147,
      "blog": 1148,
      "##nin": 1149,
      "ги": 1150,
      "34": 1151,
      "Windows": 1152,
      "##nda": 1153,
      "##nde": 1154,
      "who": 1155,
      "door": 1156,
      "cm": 1157,
      "come": 1158,
      "been": 1159,
      "uu": 1160,
      "bet": 1161,
      "их": 1162,
      "бар": 1163,
      "had": 1164,
      "##co": 1165,
      "Ja": 1166,
      "##io": 1167,
      "An": 1168,
      "##K": 1169,
      "us": 1170,
      "get": 1171,
      "bat": 1172,
      "##sta": 1173,
      "Het": 1174,
      "Ne": 1175,
      "##be": 1176,
      "##ды": 1177,
      "John": 1178,
      "су": 1179,
      "other": 1180,
      "when": 1181,
      "tus": 1182,
      "менен": 1183,
      "what": 1184,
      "##ten": 1185,
      "##B": 1186,
      "San": 1187,
      "ina": 1188,
      "free": 1189,
      "into": 1190,
      "soo": 1191,
      "##ен": 1192,
      "mm": 1193,
      "Al": 1194,
      "##6": 1195,
      "##hi": 1196,
      "##or": 1197,
      "##ш": 1198,
      "38": 1199,
      "He": 1200,
      "Da": 1201,
      "37": 1202,
      "##8": 1203,
      "же": 1204,
      "##den": 1205,
      "sit": 1206,
      "48": 1207,
      "make": 1208,
      "##7": 1209,
      "film": 1210,
      "ju": 1211,
      "For": 1212,
      "id": 1213,
      "Men": 1214,
      "##mos": 1215,
      "download": 1216,
      "them": 1217,
      "were": 1218,
      "55": 1219,
      "Video": 1220,
      "ten": 1221,
      "Dr": 1222,
      "https": 1223,
      "вы": 1224,
      "eng": 1225,
      "39": 1226,
      "##9": 1227,
      "##ä": 1228,
      "75": 1229,
      "City": 1230,
      "##ks": 1231,
      "2005": 1232,
      "tam": 1233,
      "##U": 1234,
      "eru": 1235,
      "##го": 1236,
      "sie": 1237,
      "##pa": 1238,
      "како": 1239,
      "ano": 1240,
      "On": 1241,
      "ter": 1242,
      "some": 1243,
      "деп": 1244,
      "information": 1245,
      "##F": 1246,
      "aux": 1247,
      "there": 1248,
      "##il": 1249,
      "Android": 1250,
      "42": 1251,
      "##lor": 1252,
      "Et": 1253,
      "##п": 1254,
      "website": 1255,
      "его": 1256,
      "most": 1257,
      "ID": 1258,
      "150": 1259,
      "Twitter": 1260,
      "If": 1261,
      "Ka": 1262,
      "dig": 1263,
      "mill": 1264,
      "##ach": 1265,
      "sed": 1266,
      "mal": 1267,
      "Es": 1268,
      "За": 1269,
      "##î": 1270,
      "##G": 1271,
      "would": 1272,
      "44": 1273,
      "zum": 1274,
      "##à": 1275,
      "iPhone": 1276,
      "##lu": 1277,
      "##ů": 1278,
      "how": 1279,
      "pi": 1280,
      "като": 1281,
      "##ма": 1282,
      "400": 1283,
      "##ok": 1284,
      "need": 1285,
      "2004": 1286,
      "##ns": 1287,
      "##au": 1288,
      "Por": 1289,
      "dell": 1290,
      "Co": 1291,
      "Para": 1292,
      "Не": 1293,
      "има": 1294,
      "або": 1295,
      "Do": 1296,
      "Mi": 1297,
      "##ik": 1298,
      "dy": 1299,
      "than": 1300,
      "only": 1301,
      "##ь": 1302,
      "бо": 1303,
      "eo": 1304,
      "mat": 1305,
      "people": 1306,
      "##q": 1307,
      "use": 1308,
      "##ky": 1309,
      "Allah": 1310,
      "Los": 1311,
      "##vi": 1312,
      "internet": 1313,
      "##mente": 1314,
      "Ni": 1315,
      "pod": 1316,
      "first": 1317,
      "Os": 1318,
      "program": 1319,
      "HD": 1320,
      "nur": 1321,
      "smo": 1322,
      "##he": 1323,
      "Das": 1324,
      "про": 1325,
      "па": 1326,
      "York": 1327,
      "43": 1328,
      "ach": 1329,
      "само": 1330,
      "org": 1331,
      "##ных": 1332,
      "41": 1333,
      "##du": 1334,
      "##ot": 1335,
      "St": 1336,
      "its": 1337,
      "##lla": 1338,
      "##ва": 1339,
      "##tan": 1340,
      "##ts": 1341,
      "Dan": 1342,
      "ass": 1343,
      "best": 1344,
      "##so": 1345,
      "##H": 1346,
      "##ат": 1347,
      "war": 1348,
      "##nte": 1349,
      "ri": 1350,
      "46": 1351,
      "би": 1352,
      "##ste": 1353,
      "##V": 1354,
      "ми": 1355,
      "bien": 1356,
      "hier": 1357,
      "##dir": 1358,
      "ap": 1359,
      "game": 1360,
      "можно": 1361,
      "2003": 1362,
      "##im": 1363,
      "Apple": 1364,
      "ste": 1365,
      "##ban": 1366,
      "##ou": 1367,
      "##ai": 1368,
      "well": 1369,
      "99": 1370,
      "bis": 1371,
      "USA": 1372,
      "##ге": 1373,
      "##ter": 1374,
      "aka": 1375,
      "##vo": 1376,
      "chi": 1377,
      "Nam": 1378,
      "part": 1379,
      "uns": 1380,
      "##nie": 1381,
      "Park": 1382,
      "ни": 1383,
      "ви": 1384,
      "##ol": 1385,
      "hem": 1386,
      "##ные": 1387,
      "49": 1388,
      "бир": 1389,
      "etc": 1390,
      "##ana": 1391,
      "65": 1392,
      "here": 1393,
      "##ru": 1394,
      "47": 1395,
      "cookie": 1396,
      "hotel": 1397,
      "media": 1398,
      "Per": 1399,
      "нас": 1400,
      "##des": 1401,
      "All": 1402,
      "ib": 1403,
      "Po": 1404,
      "want": 1405,
      "tre": 1406,
      "service": 1407,
      "##ку": 1408,
      "Internet": 1409,
      "Online": 1410,
      "end": 1411,
      "Pro": 1412,
      "year": 1413,
      "##nga": 1414,
      "мы": 1415,
      "##ini": 1416,
      "help": 1417,
      "san": 1418,
      "##ке": 1419,
      "ver": 1420,
      "##bi": 1421,
      "ge": 1422,
      "только": 1423,
      "##ry": 1424,
      "бол": 1425,
      "##ad": 1426,
      "Me": 1427,
      "work": 1428,
      "ин": 1429,
      "##sti": 1430,
      "jew": 1431,
      "52": 1432,
      "full": 1433,
      "fl": 1434,
      "years": 1435,
      "Service": 1436,
      "##ть": 1437,
      "2020": 1438,
      "##сы": 1439,
      "So": 1440,
      "95": 1441,
      "де": 1442,
      "64": 1443,
      "sal": 1444,
      "ari": 1445,
      "це": 1446,
      "ham": 1447,
      "##ме": 1448,
      "Ta": 1449,
      "##ita": 1450,
      "Ha": 1451,
      "set": 1452,
      "54": 1453,
      "##rs": 1454,
      "##ut": 1455,
      "way": 1456,
      "2002": 1457,
      "##ui": 1458,
      "1000": 1459,
      "##yi": 1460,
      "home": 1461,
      "day": 1462,
      "2001": 1463,
      "now": 1464,
      "51": 1465,
      "China": 1466,
      "##ный": 1467,
      "Foto": 1468,
      "##lle": 1469,
      "ima": 1470,
      "му": 1471,
      "##bo": 1472,
      "ZIP": 1473,
      "III": 1474,
      "Non": 1475,
      "вас": 1476,
      "те": 1477,
      "##ig": 1478,
      "кои": 1479,
      "mig": 1480,
      "ли": 1481,
      "##з": 1482,
      "mod": 1483,
      "hi": 1484,
      "59": 1485,
      "Cookies": 1486,
      "##ine": 1487,
      "##han": 1488,
      "##tion": 1489,
      "very": 1490,
      "##gan": 1491,
      "tar": 1492,
      "под": 1493,
      "link": 1494,
      "##ben": 1495,
      "sus": 1496,
      "##nia": 1497,
      "##das": 1498,
      "##ного": 1499,
      "ago": 1500,
      "strong": 1501,
      "##dos": 1502,
      "David": 1503,
      "Te": 1504,
      "seg": 1505,
      "##ung": 1506,
      "250": 1507,
      "53": 1508,
      "these": 1509,
      "take": 1510,
      "Za": 1511,
      "Free": 1512,
      "##ты": 1513,
      "EU": 1514,
      "andre": 1515,
      "##ssa": 1516,
      "года": 1517,
      "56": 1518,
      "##ers": 1519,
      "много": 1520,
      "##де": 1521,
      "know": 1522,
      "after": 1523,
      "Ny": 1524,
      "ex": 1525,
      "##ty": 1526,
      "off": 1527,
      "long": 1528,
      "##ran": 1529,
      "##zo": 1530,
      "58": 1531,
      "Но": 1532,
      "social": 1533,
      "##era": 1534,
      "back": 1535,
      "even": 1536,
      "zoo": 1537,
      "##ний": 1538,
      "jam": 1539,
      "##ра": 1540,
      "может": 1541,
      "See": 1542,
      "mp3": 1543,
      "##ът": 1544,
      "top": 1545,
      "Tha": 1546,
      "##jen": 1547,
      "two": 1548,
      "будет": 1549,
      "600": 1550,
      "plan": 1551,
      "Er": 1552,
      "аст": 1553,
      "model": 1554,
      "Una": 1555,
      "good": 1556,
      "##ble": 1557,
      "ble": 1558,
      "им": 1559,
      "57": 1560,
      "але": 1561,
      "Для": 1562,
      "120": 1563,
      "PC": 1564,
      "было": 1565,
      "того": 1566,
      "design": 1567,
      "Este": 1568,
      "super": 1569,
      "##дан": 1570,
      "inn": 1571,
      "many": 1572,
      "said": 1573,
      "Man": 1574,
      "##ske": 1575,
      "##rt": 1576,
      "най": 1577,
      "време": 1578,
      "Mar": 1579,
      "3D": 1580,
      "through": 1581,
      "##ii": 1582,
      "##ea": 1583,
      "bin": 1584,
      "she": 1585,
      "tom": 1586,
      "World": 1587,
      "LED": 1588,
      "##он": 1589,
      "##ska": 1590,
      "##мен": 1591,
      "##ч": 1592,
      "One": 1593,
      "##ll": 1594,
      "##ken": 1595,
      "час": 1596,
      "##š": 1597,
      "##ски": 1598,
      "##sen": 1599,
      "My": 1600,
      "info": 1601,
      "##lt": 1602,
      "And": 1603,
      "##tas": 1604,
      "hy": 1605,
      "Europa": 1606,
      "place": 1607,
      "##mas": 1608,
      "solo": 1609,
      "let": 1610,
      "DE": 1611,
      "##ной": 1612,
      "comme": 1613,
      "##pe": 1614,
      "800": 1615,
      "base": 1616,
      "system": 1617,
      "1999": 1618,
      "then": 1619,
      "##wo": 1620,
      "India": 1621,
      "auto": 1622,
      "bio": 1623,
      "ed": 1624,
      "Nu": 1625,
      "время": 1626,
      "faire": 1627,
      "##W": 1628,
      "ob": 1629,
      "##fa": 1630,
      "account": 1631,
      "##che": 1632,
      "made": 1633,
      "tin": 1634,
      "io": 1635,
      "mid": 1636,
      "которые": 1637,
      "business": 1638,
      "YouTube": 1639,
      "##ies": 1640,
      "##ле": 1641,
      "gli": 1642,
      "бу": 1643,
      "sia": 1644,
      "##ite": 1645,
      "mere": 1646,
      "если": 1647,
      "##ийн": 1648,
      "##po": 1649,
      "##ам": 1650,
      "Во": 1651,
      "62": 1652,
      "##zione": 1653,
      "yen": 1654,
      "kg": 1655,
      "bar": 1656,
      "чтобы": 1657,
      "##ну": 1658,
      "Ali": 1659,
      "Microsoft": 1660,
      "final": 1661,
      "should": 1662,
      "##ди": 1663,
      "##Y": 1664,
      "United": 1665,
      "##ria": 1666,
      "noma": 1667,
      "Page": 1668,
      "France": 1669,
      "85": 1670,
      "life": 1671,
      "вам": 1672,
      "также": 1673,
      "University": 1674,
      "##su": 1675,
      "News": 1676,
      "##ан": 1677,
      "IP": 1678,
      "fait": 1679,
      "можете": 1680,
      "##ийг": 1681,
      "##ski": 1682,
      "##ion": 1683,
      "По": 1684,
      "where": 1685,
      "##ная": 1686,
      "art": 1687,
      "##X": 1688,
      "sul": 1689,
      "Dir": 1690,
      "Re": 1691,
      "James": 1692,
      "ул": 1693,
      "real": 1694,
      "him": 1695,
      "At": 1696,
      "ew": 1697,
      "USB": 1698,
      "##ным": 1699,
      "##ada": 1700,
      "##ic": 1701,
      "Om": 1702,
      "после": 1703,
      "Indonesia": 1704,
      "total": 1705,
      "Wir": 1706,
      "contra": 1707,
      "love": 1708,
      "app": 1709,
      "much": 1710,
      "##ыг": 1711,
      "Ar": 1712,
      "##my": 1713,
      "При": 1714,
      "##nen": 1715,
      "Street": 1716,
      "##nd": 1717,
      "wake": 1718,
      "Full": 1719,
      "##res": 1720,
      "page": 1721,
      "face": 1722,
      "find": 1723,
      "right": 1724,
      "world": 1725,
      "##ят": 1726,
      "local": 1727,
      "Home": 1728,
      "##ton": 1729,
      "том": 1730,
      "could": 1731,
      "Если": 1732,
      "##que": 1733,
      "##ene": 1734,
      "##men": 1735,
      "##ро": 1736,
      "##ите": 1737,
      "great": 1738,
      "alt": 1739,
      "theo": 1740,
      "County": 1741,
      "Art": 1742,
      "Paris": 1743,
      "using": 1744,
      "##ст": 1745,
      "moment": 1746,
      "God": 1747,
      "ul": 1748,
      "high": 1749,
      "sang": 1750,
      "Jag": 1751,
      "ал": 1752,
      "used": 1753,
      "Mo": 1754,
      "##nak": 1755,
      "such": 1756,
      "уже": 1757,
      "61": 1758,
      "problem": 1759,
      "fin": 1760,
      "##lan": 1761,
      "##land": 1762,
      "bay": 1763,
      "sai": 1764,
      "##ем": 1765,
      "##ї": 1766,
      "два": 1767,
      "Paul": 1768,
      "1998": 1769,
      "because": 1770,
      "What": 1771,
      "pred": 1772,
      "##cu": 1773,
      "International": 1774,
      "##der": 1775,
      "беше": 1776,
      "show": 1777,
      "72": 1778,
      "May": 1779,
      "test": 1780,
      "support": 1781,
      "week": 1782,
      "Las": 1783,
      "##ere": 1784,
      "before": 1785,
      "##gen": 1786,
      "##uri": 1787,
      "same": 1788,
      "##are": 1789,
      "END": 1790,
      "tri": 1791,
      "##nn": 1792,
      "vo": 1793,
      "prima": 1794,
      "services": 1795,
      "Inc": 1796,
      "Club": 1797,
      "Maria": 1798,
      "ll": 1799,
      "Han": 1800,
      "болон": 1801,
      "##ei": 1802,
      "##ele": 1803,
      "есть": 1804,
      "##pi": 1805,
      "line": 1806,
      "##len": 1807,
      "##ean": 1808,
      "ro": 1809,
      "Her": 1810,
      "##cia": 1811,
      "##rea": 1812,
      "##ms": 1813,
      "##nta": 1814,
      "Michael": 1815,
      "ty": 1816,
      "##сь": 1817,
      "##ой": 1818,
      "contact": 1819,
      "##tt": 1820,
      "##ок": 1821,
      "START": 1822,
      "Washington": 1823,
      "##ista": 1824,
      "West": 1825,
      "Ce": 1826,
      "disse": 1827,
      "Em": 1828,
      "team": 1829,
      "last": 1830,
      "Samsung": 1831,
      "Mr": 1832,
      "Air": 1833,
      "1990": 1834,
      "Web": 1835,
      "Bir": 1836,
      "ur": 1837,
      "##ira": 1838,
      "они": 1839,
      "##bu": 1840,
      "этом": 1841,
      "Als": 1842,
      "ces": 1843,
      "ele": 1844,
      "shi": 1845,
      "mg": 1846,
      "його": 1847,
      "##лы": 1848,
      "него": 1849,
      "очень": 1850,
      "Ich": 1851,
      "Van": 1852,
      "store": 1853,
      "being": 1854,
      "epi": 1855,
      "House": 1856,
      "через": 1857,
      "быть": 1858,
      "English": 1859,
      "kata": 1860,
      "start": 1861,
      "Plus": 1862,
      "bona": 1863,
      "Op": 1864,
      "##ura": 1865,
      "deg": 1866,
      "ад": 1867,
      "##ет": 1868,
      "London": 1869,
      "##ado": 1870,
      "##ж": 1871,
      "##тай": 1872,
      "##ную": 1873,
      "form": 1874,
      "California": 1875,
      "##son": 1876,
      "car": 1877,
      "look": 1878,
      "Black": 1879,
      "Center": 1880,
      "##kin": 1881,
      "uno": 1882,
      "##ona": 1883,
      "Ho": 1884,
      "##ud": 1885,
      "Super": 1886,
      "Ba": 1887,
      "name": 1888,
      "##ida": 1889,
      "##ца": 1890,
      "66": 1891,
      "IV": 1892,
      "euro": 1893,
      "Post": 1894,
      "##ata": 1895,
      "Вы": 1896,
      "file": 1897,
      "Top": 1898,
      "type": 1899,
      "##тар": 1900,
      "эле": 1901,
      "над": 1902,
      "##них": 1903,
      "fer": 1904,
      "There": 1905,
      "##gu": 1906,
      "1997": 1907,
      "Ltd": 1908,
      "##lah": 1909,
      "Как": 1910,
      "можна": 1911,
      "##tes": 1912,
      "##му": 1913,
      "Ti": 1914,
      "##nti": 1915,
      "##san": 1916,
      "более": 1917,
      "software": 1918,
      "personal": 1919,
      "ab": 1920,
      "qua": 1921,
      "rin": 1922,
      "63": 1923,
      "68": 1924,
      "Thomas": 1925,
      "Ke": 1926,
      "share": 1927,
      "CD": 1928,
      "down": 1929,
      "##ner": 1930,
      "IT": 1931,
      "Nie": 1932,
      "those": 1933,
      "##ше": 1934,
      "Bank": 1935,
      "Robert": 1936,
      "просто": 1937,
      "product": 1938,
      "Website": 1939,
      "Ако": 1940,
      "##ua": 1941,
      "National": 1942,
      "live": 1943,
      "order": 1944,
      "moi": 1945,
      "water": 1946,
      "bli": 1947,
      "god": 1948,
      "Ya": 1949,
      "American": 1950,
      "себе": 1951,
      "Barcelona": 1952,
      "ii": 1953,
      "##sh": 1954,
      "##ling": 1955,
      "USD": 1956,
      "But": 1957,
      "Group": 1958,
      "##hu": 1959,
      "Italia": 1960,
      "ban": 1961,
      "ти": 1962,
      "due": 1963,
      "1996": 1964,
      "##ica": 1965,
      "67": 1966,
      "Malaysia": 1967,
      "##лары": 1968,
      "##ци": 1969,
      "By": 1970,
      "Dia": 1971,
      "area": 1972,
      "School": 1973,
      "Santa": 1974,
      "bra": 1975,
      "##ло": 1976,
      "available": 1977,
      "##th": 1978,
      "бы": 1979,
      "Saint": 1980,
      "Tag": 1981,
      "George": 1982,
      "vid": 1983,
      "той": 1984,
      "##ин": 1985,
      "person": 1986,
      "##tik": 1987,
      "Pa": 1988,
      "land": 1989,
      "1995": 1990,
      "put": 1991,
      "##це": 1992,
      "South": 1993,
      "State": 1994,
      "##tra": 1995,
      "Да": 1996,
      "Alle": 1997,
      "Play": 1998,
      "##б": 1999,
      "Star": 2000,
      "Martin": 2001,
      "bit": 2002,
      "##dy": 2003,
      "##les": 2004,
      "think": 2005,
      "each": 2006,
      "bare": 2007,
      "important": 2008,
      "own": 2009,
      "bus": 2010,
      "around": 2011,
      "sun": 2012,
      "got": 2013,
      "Og": 2014,
      "700": 2015,
      "##ire": 2016,
      "Mp3": 2017,
      "September": 2018,
      "##ри": 2019,
      "##ert": 2020,
      "##ima": 2021,
      "Mit": 2022,
      "##sk": 2023,
      "##ting": 2024,
      "really": 2025,
      "Real": 2026,
      "sei": 2027,
      "side": 2028,
      "ml": 2029,
      "Ek": 2030,
      "##ay": 2031,
      "anti": 2032,
      "dwe": 2033,
      "yoo": 2034,
      "tele": 2035,
      "Amazon": 2036,
      "public": 2037,
      "она": 2038,
      "##iga": 2039,
      "##ile": 2040,
      "##ah": 2041,
      "point": 2042,
      "days": 2043,
      "##zen": 2044,
      "##nes": 2045,
      "##ии": 2046,
      "##yan": 2047,
      "album": 2048,
      "Peter": 2049,
      "98": 2050,
      "##wi": 2051,
      "tie": 2052,
      "##ер": 2053,
      "hau": 2054,
      "##ant": 2055,
      "##cha": 2056,
      "##ц": 2057,
      "##dor": 2058,
      "while": 2059,
      "деген": 2060,
      "шумо": 2061,
      "1994": 2062,
      "vita": 2063,
      "list": 2064,
      "69": 2065,
      "##ika": 2066,
      "vs": 2067,
      "##ist": 2068,
      "sta": 2069,
      "Songs": 2070,
      "material": 2071,
      "every": 2072,
      "об": 2073,
      "Grand": 2074,
      "date": 2075,
      "hu": 2076,
      "##ndi": 2077,
      "##ните": 2078,
      "They": 2079,
      "Это": 2080,
      "##by": 2081,
      "vom": 2082,
      "Бу": 2083,
      "How": 2084,
      "meta": 2085,
      "Ji": 2086,
      "##sha": 2087,
      "pole": 2088,
      "Your": 2089,
      "stock": 2090,
      "##oa": 2091,
      "88": 2092,
      "день": 2093,
      "три": 2094,
      "76": 2095,
      "article": 2096,
      "##rin": 2097,
      "news": 2098,
      "case": 2099,
      "##iya": 2100,
      "Дар": 2101,
      "##tor": 2102,
      "##Z": 2103,
      "##ck": 2104,
      "ane": 2105,
      "Мы": 2106,
      "1992": 2107,
      "EUR": 2108,
      "Jan": 2109,
      "##ela": 2110,
      "must": 2111,
      "##ць": 2112,
      "Med": 2113,
      "More": 2114,
      "который": 2115,
      "ол": 2116,
      "code": 2117,
      "size": 2118,
      "##лык": 2119,
      "too": 2120,
      "Um": 2121,
      "North": 2122,
      "give": 2123,
      "still": 2124,
      "content": 2125,
      "Red": 2126,
      "##cht": 2127,
      "Don": 2128,
      "этого": 2129,
      "Madrid": 2130,
      "71": 2131,
      "77": 2132,
      "лет": 2133,
      "##line": 2134,
      "tur": 2135,
      "extra": 2136,
      "normal": 2137,
      "74": 2138,
      "##nik": 2139,
      "раз": 2140,
      "##chi": 2141,
      "##min": 2142,
      "hei": 2143,
      "##ent": 2144,
      "##ска": 2145,
      "bol": 2146,
      "##ang": 2147,
      "Jesus": 2148,
      "78": 2149,
      "пред": 2150,
      "Road": 2151,
      "##yn": 2152,
      "number": 2153,
      "Of": 2154,
      "anni": 2155,
      "control": 2156,
      "когда": 2157,
      "##сть": 2158,
      "Mac": 2159,
      "бул": 2160,
      "##val": 2161,
      "был": 2162,
      "96": 2163,
      "Como": 2164,
      "##00": 2165,
      "Tu": 2166,
      "Mai": 2167,
      "73": 2168,
      "lat": 2169,
      "mil": 2170,
      "##vu": 2171,
      "motor": 2172,
      "UK": 2173,
      "possible": 2174,
      "Movie": 2175,
      "Ал": 2176,
      "ud": 2177,
      "William": 2178,
      "marketing": 2179,
      "180": 2180,
      "1991": 2181,
      "Beach": 2182,
      "between": 2183,
      "family": 2184,
      "Jean": 2185,
      "##tar": 2186,
      "Go": 2187,
      "Ben": 2188,
      "Fi": 2189,
      "##dh": 2190,
      "##ор": 2191,
      "##lin": 2192,
      "months": 2193,
      "##ring": 2194,
      "##rum": 2195,
      "##rik": 2196,
      "Please": 2197,
      "Ini": 2198,
      "dir": 2199,
      "там": 2200,
      "##ко": 2201,
      "Sed": 2202,
      "High": 2203,
      "каб": 2204,
      "fit": 2205,
      "far": 2206,
      "Media": 2207,
      "simple": 2208,
      "##J": 2209,
      "1993": 2210,
      "When": 2211,
      "Music": 2212,
      "них": 2213,
      "##ова": 2214,
      "##ах": 2215,
      "##ния": 2216,
      "sub": 2217,
      "Bi": 2218,
      "Od": 2219,
      "Click": 2220,
      "experience": 2221,
      "logo": 2222,
      "86": 2223,
      "different": 2224,
      "next": 2225,
      "##dd": 2226,
      "Pero": 2227,
      "idea": 2228,
      "##rat": 2229,
      "где": 2230,
      "TripAdvisor": 2231,
      "##ala": 2232,
      "##sko": 2233,
      "fare": 2234,
      "ok": 2235,
      "еще": 2236,
      "gang": 2237,
      "110": 2238,
      "##ara": 2239,
      "ru": 2240,
      "Mark": 2241,
      "DVD": 2242,
      "##mme": 2243,
      "##tus": 2244,
      "##ret": 2245,
      "play": 2246,
      "going": 2247,
      "##ari": 2248,
      "company": 2249,
      "bike": 2250,
      "##ger": 2251,
      "през": 2252,
      "82": 2253,
      "window": 2254,
      "84": 2255,
      "ena": 2256,
      "Lake": 2257,
      "ее": 2258,
      "xi": 2259,
      "With": 2260,
      "ae": 2261,
      "digital": 2262,
      "##ия": 2263,
      "PM": 2264,
      "open": 2265,
      "hand": 2266,
      "была": 2267,
      "Read": 2268,
      "теле": 2269,
      "сам": 2270,
      "lot": 2271,
      "Big": 2272,
      "као": 2273,
      "92": 2274,
      "book": 2275,
      "Brasil": 2276,
      "##bar": 2277,
      "Day": 2278,
      "based": 2279,
      "Live": 2280,
      "Business": 2281,
      "други": 2282,
      "81": 2283,
      "does": 2284,
      "один": 2285,
      "kde": 2286,
      "России": 2287,
      "mon": 2288,
      "wax": 2289,
      "97": 2290,
      "both": 2291,
      "##ras": 2292,
      "including": 2293,
      "school": 2294,
      "бер": 2295,
      "without": 2296,
      "opp": 2297,
      "Ak": 2298,
      "след": 2299,
      "чем": 2300,
      "##ната": 2301,
      "Galaxy": 2302,
      "Our": 2303,
      "видео": 2304,
      "Islam": 2305,
      "1980": 2306,
      "чи": 2307,
      "Ana": 2308,
      "NAME": 2309,
      "King": 2310,
      "MP3": 2311,
      "pot": 2312,
      "89": 2313,
      "##oni": 2314,
      "нам": 2315,
      "##ate": 2316,
      "79": 2317,
      "better": 2318,
      "##nan": 2319,
      "syn": 2320,
      "##ар": 2321,
      "things": 2322,
      "биде": 2323,
      "83": 2324,
      "Design": 2325,
      "##yon": 2326,
      "91": 2327,
      "Bay": 2328,
      "онлайн": 2329,
      "##one": 2330,
      "style": 2331,
      "##ami": 2332,
      "google": 2333,
      "Hy": 2334,
      "##ian": 2335,
      "App": 2336,
      "lite": 2337,
      "vain": 2338,
      "га": 2339,
      "version": 2340,
      "##ий": 2341,
      "##iu": 2342,
      "SA": 2343,
      "main": 2344,
      "году": 2345,
      "##ker": 2346,
      "##ais": 2347,
      "##od": 2348,
      "America": 2349,
      "League": 2350,
      "System": 2351,
      "##ez": 2352,
      "##ati": 2353,
      "Une": 2354,
      "pie": 2355,
      "##zu": 2356,
      "##тер": 2357,
      "##си": 2358,
      "##сти": 2359,
      "standard": 2360,
      "mobil": 2361,
      "vu": 2362,
      "Бул": 2363,
      "Smith": 2364,
      "##нда": 2365,
      "fast": 2366,
      "Ein": 2367,
      "iOS": 2368,
      "##tis": 2369,
      "PDF": 2370,
      "original": 2371,
      "##ад": 2372,
      "мин": 2373,
      "України": 2374,
      "93": 2375,
      "Data": 2376,
      "##sz": 2377,
      "bank": 2378,
      "general": 2379,
      "Com": 2380,
      "Im": 2381,
      "87": 2382,
      "нужно": 2383,
      "##nis": 2384,
      "check": 2385,
      "##fi": 2386,
      "тому": 2387,
      "mobile": 2388,
      "94": 2389,
      "Mais": 2390,
      "few": 2391,
      "quality": 2392,
      "mali": 2393,
      "между": 2394,
      "Roma": 2395,
      "always": 2396,
      "##uk": 2397,
      "является": 2398,
      "##cy": 2399,
      "Ir": 2400,
      "products": 2401,
      "mind": 2402,
      "Tom": 2403,
      "biz": 2404,
      "дип": 2405,
      "never": 2406,
      "##iti": 2407,
      "fine": 2408,
      "gun": 2409,
      "Esta": 2410,
      "##mer": 2411,
      "White": 2412,
      "natural": 2413,
      "ден": 2414,
      "old": 2415,
      "ant": 2416,
      "state": 2417,
      "FC": 2418,
      "pl": 2419,
      "did": 2420,
      "##ј": 2421,
      "##asi": 2422,
      "Як": 2423,
      "Jo": 2424,
      "##mine": 2425,
      "say": 2426,
      "даже": 2427,
      "dh": 2428,
      "Wi": 2429,
      "##чи": 2430,
      "Mail": 2431,
      "song": 2432,
      "##sel": 2433,
      "Tak": 2434,
      "dili": 2435,
      "##ER": 2436,
      "##zy": 2437,
      "comment": 2438,
      "Festival": 2439,
      "little": 2440,
      "Mas": 2441,
      "Daniel": 2442,
      "Lo": 2443,
      "##nar": 2444,
      "menu": 2445,
      "##ron": 2446,
      "music": 2447,
      "URL": 2448,
      "могут": 2449,
      "Lee": 2450,
      "Israel": 2451,
      "##мо": 2452,
      "##ник": 2453,
      "image": 2454,
      "##tta": 2455,
      "Best": 2456,
      "Island": 2457,
      "1989": 2458,
      "lag": 2459,
      "##tur": 2460,
      "Canada": 2461,
      "Now": 2462,
      "hur": 2463,
      "sport": 2464,
      "сите": 2465,
      "April": 2466,
      "found": 2467,
      "address": 2468,
      "LA": 2469,
      "##ena": 2470,
      "That": 2471,
      "Ing": 2472,
      "Love": 2473,
      "text": 2474,
      "##kom": 2475,
      "##ха": 2476,
      "Wat": 2477,
      "movie": 2478,
      "##van": 2479,
      "##ey": 2480,
      "##ls": 2481,
      "sure": 2482,
      "Latvijas": 2483,
      "during": 2484,
      "##las": 2485,
      "radio": 2486,
      "Team": 2487,
      "##nce": 2488,
      "Har": 2489,
      "sim": 2490,
      "##ги": 2491,
      "оны": 2492,
      "mini": 2493,
      "##се": 2494,
      "##ide": 2495,
      "something": 2496,
      "##rd": 2497,
      "ch": 2498,
      "three": 2499,
      "mano": 2500,
      "Game": 2501,
      "status": 2502,
      "ef": 2503,
      "Kim": 2504,
      "Film": 2505,
      "won": 2506,
      "130": 2507,
      "Euro": 2508,
      "сте": 2509,
      "##use": 2510,
      "##ами": 2511,
      "две": 2512,
      "##ня": 2513,
      "read": 2514,
      "Green": 2515,
      "##ча": 2516,
      "Jos": 2517,
      "today": 2518,
      "Song": 2519,
      "##чы": 2520,
      "tag": 2521,
      "##ган": 2522,
      "tip": 2523,
      "Met": 2524,
      "provide": 2525,
      "##ü": 2526,
      "Tai": 2527,
      "Але": 2528,
      "cap": 2529,
      "##ali": 2530,
      "Charles": 2531,
      "##ien": 2532,
      "kei": 2533,
      "160": 2534,
      "##ley": 2535,
      "Europe": 2536,
      "900": 2537,
      "ore": 2538,
      "##sin": 2539,
      "change": 2540,
      "##ber": 2541,
      "##pu": 2542,
      "##ей": 2543,
      "##aa": 2544,
      "m2": 2545,
      "Son": 2546,
      "AS": 2547,
      "MB": 2548,
      "##ым": 2549,
      "людей": 2550,
      "Ai": 2551,
      "Ia": 2552,
      "##tia": 2553,
      "sale": 2554,
      "tv": 2555,
      "мне": 2556,
      "##нын": 2557,
      "persona": 2558,
      "tips": 2559,
      "Hier": 2560,
      "Min": 2561,
      "сайт": 2562,
      "offer": 2563,
      "click": 2564,
      "##ani": 2565,
      "Australia": 2566,
      "##nog": 2567,
      "Radio": 2568,
      "dom": 2569,
      "Max": 2570,
      "##ova": 2571,
      "Hill": 2572,
      "350": 2573,
      "Postal": 2574,
      "please": 2575,
      "process": 2576,
      "global": 2577,
      "140": 2578,
      "color": 2579,
      "dating": 2580,
      "Casino": 2581,
      "Richard": 2582,
      "Nan": 2583,
      "против": 2584,
      "##kas": 2585,
      "иде": 2586,
      "було": 2587,
      "Ale": 2588,
      "Am": 2589,
      "1970": 2590,
      "modern": 2591,
      "##wy": 2592,
      "Texas": 2593,
      "бик": 2594,
      "##met": 2595,
      "##nou": 2596,
      "food": 2597,
      "##num": 2598,
      "##zwa": 2599,
      "фото": 2600,
      "sine": 2601,
      "SMS": 2602,
      "##ili": 2603,
      "##ris": 2604,
      "Так": 2605,
      "Ki": 2606,
      "##ç": 2607,
      "another": 2608,
      "##pen": 2609,
      "##una": 2610,
      "ман": 2611,
      "##ier": 2612,
      "##са": 2613,
      "Apa": 2614,
      "работы": 2615,
      "##mus": 2616,
      "Мен": 2617,
      "within": 2618,
      "##ville": 2619,
      "Anna": 2620,
      "font": 2621,
      "##tte": 2622,
      "##tti": 2623,
      "Here": 2624,
      "адам": 2625,
      "esa": 2626,
      "nego": 2627,
      "meter": 2628,
      "##jas": 2629,
      "##че": 2630,
      "##iz": 2631,
      "##og": 2632,
      "##per": 2633,
      "##rar": 2634,
      "forum": 2635,
      "access": 2636,
      "##є": 2637,
      "##ore": 2638,
      "hard": 2639,
      "Auto": 2640,
      "Он": 2641,
      "small": 2642,
      "всех": 2643,
      "нет": 2644,
      "##let": 2645,
      "##дар": 2646,
      "год": 2647,
      "##ser": 2648,
      "NA": 2649,
      "буде": 2650,
      "since": 2651,
      "facebook": 2652,
      "##ons": 2653,
      "Все": 2654,
      "html": 2655,
      "##ства": 2656,
      "disa": 2657,
      "Asia": 2658,
      "Office": 2659,
      "room": 2660,
      "ме": 2661,
      "College": 2662,
      "место": 2663,
      "Ku": 2664,
      "Mary": 2665,
      "call": 2666,
      "body": 2667,
      "format": 2668,
      "##ту": 2669,
      "Su": 2670,
      "##ство": 2671,
      "##chen": 2672,
      "Open": 2673,
      "kbps": 2674,
      "125": 2675,
      "Alexa": 2676,
      "metro": 2677,
      "##ться": 2678,
      "looking": 2679,
      "lle": 2680,
      "##owe": 2681,
      "hom": 2682,
      "себя": 2683,
      "Din": 2684,
      "zi": 2685,
      "осы": 2686,
      "##rio": 2687,
      "Que": 2688,
      "всего": 2689,
      "prej": 2690,
      "again": 2691,
      "##ys": 2692,
      "##AN": 2693,
      "photo": 2694,
      "##fu": 2695,
      "##ila": 2696,
      "тут": 2697,
      "било": 2698,
      "WordPress": 2699,
      "power": 2700,
      "пра": 2701,
      "##ale": 2702,
      "dio": 2703,
      "iPad": 2704,
      "bl": 2705,
      "Ad": 2706,
      "East": 2707,
      "might": 2708,
      "Land": 2709,
      "Tablet": 2710,
      "Central": 2711,
      "##ына": 2712,
      "DC": 2713,
      "apo": 2714,
      "Sport": 2715,
      "##hin": 2716,
      "able": 2717,
      "dr": 2718,
      "страна": 2719,
      "##hen": 2720,
      "group": 2721,
      "Blog": 2722,
      "Blue": 2723,
      "review": 2724,
      "vitae": 2725,
      "ela": 2726,
      "##цца": 2727,
      "##lis": 2728,
      "level": 2729,
      "principal": 2730,
      "price": 2731,
      "General": 2732,
      "работа": 2733,
      "Bar": 2734,
      "##berg": 2735,
      "Life": 2736,
      "OK": 2737,
      "##ден": 2738,
      "item": 2739,
      "red": 2740,
      "big": 2741,
      "monde": 2742,
      "тел": 2743,
      "project": 2744,
      "##гы": 2745,
      "Mobile": 2746,
      "##ою": 2747,
      "##gas": 2748,
      "She": 2749,
      "360": 2750,
      "Paulo": 2751,
      "dul": 2752,
      "Nr": 2753,
      "Jack": 2754,
      "##цы": 2755,
      "vol": 2756,
      "##ula": 2757,
      "done": 2758,
      "##ное": 2759,
      "1988": 2760,
      "keep": 2761,
      "##би": 2762,
      "ton": 2763,
      "##тан": 2764,
      "##ном": 2765,
      "##ens": 2766,
      "HP": 2767,
      "pdf": 2768,
      "pan": 2769,
      "sis": 2770,
      "nl": 2771,
      "course": 2772,
      "##ша": 2773,
      "vis": 2774,
      "dont": 2775,
      "##ых": 2776,
      "Yang": 2777,
      "photos": 2778,
      "биш": 2779,
      "São": 2780,
      "kin": 2781,
      "больше": 2782,
      "##lia": 2783,
      "hope": 2784,
      "##mit": 2785,
      "Be": 2786,
      "Inn": 2787,
      "later": 2788,
      "Ou": 2789,
      "Des": 2790,
      "single": 2791,
      "начин": 2792,
      "market": 2793,
      "##tin": 2794,
      "Rock": 2795,
      "Jones": 2796,
      "Wie": 2797,
      "##able": 2798,
      "##ane": 2799,
      "Times": 2800,
      "##lara": 2801,
      "Yo": 2802,
      "Bei": 2803,
      "##sse": 2804,
      "Royal": 2805,
      "##kt": 2806,
      "GB": 2807,
      "##аа": 2808,
      "##eni": 2809,
      "нема": 2810,
      "below": 2811,
      "##iro": 2812,
      "answer": 2813,
      "Power": 2814,
      "Store": 2815,
      "esto": 2816,
      "##шы": 2817,
      "Company": 2818,
      "##ver": 2819,
      "special": 2820,
      "begin": 2821,
      "loa": 2822,
      "mode": 2823,
      "November": 2824,
      "##ius": 2825,
      "Social": 2826,
      "меня": 2827,
      "Link": 2828,
      "include": 2829,
      "kind": 2830,
      "##tha": 2831,
      "feel": 2832,
      "Out": 2833,
      "компании": 2834,
      "Email": 2835,
      "Long": 2836,
      "DNA": 2837,
      "дома": 2838,
      "gas": 2839,
      "SEO": 2840,
      "аб": 2841,
      "##ade": 2842,
      "minutes": 2843,
      "question": 2844,
      "inter": 2845,
      "bonus": 2846,
      "class": 2847,
      "##ure": 2848,
      "tab": 2849,
      "Ford": 2850,
      "working": 2851,
      "##nto": 2852,
      "porta": 2853,
      "##им": 2854,
      "away": 2855,
      "Harry": 2856,
      "Global": 2857,
      "##ven": 2858,
      "legal": 2859,
      "Par": 2860,
      "##sia": 2861,
      "##ej": 2862,
      "мо": 2863,
      "области": 2864,
      "Casa": 2865,
      "101": 2866,
      "свою": 2867,
      "Kun": 2868,
      "##лер": 2869,
      "##ши": 2870,
      "##tos": 2871,
      "коли": 2872,
      "един": 2873,
      "код": 2874,
      "LINK": 2875,
      "Ci": 2876,
      "direct": 2877,
      "sites": 2878,
      "OTHER": 2879,
      "##ted": 2880,
      "pale": 2881,
      "ens": 2882,
      "Ev": 2883,
      "job": 2884,
      "Mu": 2885,
      "times": 2886,
      "Johnson": 2887,
      "##ive": 2888,
      "##ino": 2889,
      "suite": 2890,
      "event": 2891,
      "Watch": 2892,
      "stand": 2893,
      "LLC": 2894,
      "money": 2895,
      "Eu": 2896,
      "popular": 2897,
      "свой": 2898,
      "making": 2899,
      "##ong": 2900,
      "centre": 2901,
      "сол": 2902,
      "computer": 2903,
      "health": 2904,
      "States": 2905,
      "Biz": 2906,
      "OS": 2907,
      "large": 2908,
      "action": 2909,
      "##тын": 2910,
      "second": 2911,
      "1960": 2912,
      "stop": 2913,
      "вони": 2914,
      "##ал": 2915,
      "audio": 2916,
      "run": 2917,
      "view": 2918,
      "thi": 2919,
      "3000": 2920,
      "following": 2921,
      "house": 2922,
      "Chris": 2923,
      "Tas": 2924,
      "##een": 2925,
      "Та": 2926,
      "Time": 2927,
      "кто": 2928,
      "##нд": 2929,
      "5000": 2930,
      "##fe": 2931,
      "self": 2932,
      "enda": 2933,
      "lib": 2934,
      "questions": 2935,
      "больш": 2936,
      "past": 2937,
      "Resort": 2938,
      "Ach": 2939,
      "community": 2940,
      "башка": 2941,
      "Christian": 2942,
      "Management": 2943,
      "cur": 2944,
      "##pan": 2945,
      "million": 2946,
      "1986": 2947,
      "##tel": 2948,
      "easy": 2949,
      "create": 2950,
      "Brown": 2951,
      "left": 2952,
      "Oh": 2953,
      "##ama": 2954,
      "необходимо": 2955,
      "ES": 2956,
      "##ete": 2957,
      "Au": 2958,
      "ISO": 2959,
      "права": 2960,
      "why": 2961,
      "Nova": 2962,
      "още": 2963,
      "##ове": 2964,
      "##чки": 2965,
      "ego": 2966,
      "deb": 2967,
      "##ness": 2968,
      "были": 2969,
      "Villa": 2970,
      "бути": 2971,
      "Sony": 2972,
      "Server": 2973,
      "##дын": 2974,
      "1987": 2975,
      "##dar": 2976,
      "##ови": 2977,
      "story": 2978,
      "Bet": 2979,
      "details": 2980,
      "Ви": 2981,
      "случае": 2982,
      "Francisco": 2983,
      "server": 2984,
      "1985": 2985,
      "Site": 2986,
      "add": 2987,
      "Was": 2988,
      "club": 2989,
      "August": 2990,
      "этой": 2991,
      "Қазақстан": 2992,
      "бас": 2993,
      "##сын": 2994,
      "##ба": 2995,
      "##mis": 2996,
      "View": 2997,
      "watch": 2998,
      "Rio": 2999,
      "Show": 3000,
      "##sten": 3001,
      "hot": 3002,
      "Louis": 3003,
      "##eri": 3004,
      "##ice": 3005,
      "##ние": 3006,
      "search": 3007,
      "dawn": 3008,
      "##ation": 3009,
      "ideal": 3010,
      "Nem": 3011,
      "GPS": 3012,
      "dire": 3013,
      "Би": 3014,
      "##ры": 3015,
      "tax": 3016,
      "gr": 3017,
      "Program": 3018,
      "1984": 3019,
      "private": 3020,
      "##ую": 3021,
      "##ют": 3022,
      "##uka": 3023,
      "Studio": 3024,
      "##ux": 3025,
      "against": 3026,
      "VI": 3027,
      "Zeit": 3028,
      "маш": 3029,
      "party": 3030,
      "##ння": 3031,
      "UE": 3032,
      "devas": 3033,
      "##ano": 3034,
      "user": 3035,
      "city": 3036,
      "perfect": 3037,
      "Digital": 3038,
      "##nna": 3039,
      "право": 3040,
      "Tour": 3041,
      "Creative": 3042,
      "children": 3043,
      "Sam": 3044,
      "1500": 3045,
      "##age": 3046,
      "була": 3047,
      "Berlin": 3048,
      "##yu": 3049,
      "jpg": 3050,
      "Joseph": 3051,
      "pane": 3052,
      "##wan": 3053,
      "##ue": 3054,
      "bag": 3055,
      "Juan": 3056,
      "##ties": 3057,
      "brand": 3058,
      "IN": 3059,
      "band": 3060,
      "sense": 3061,
      "##ак": 3062,
      "##йте": 3063,
      "Old": 3064,
      "##ской": 3065,
      "Services": 3066,
      "Hall": 3067,
      "Mike": 3068,
      "Cup": 3069,
      "ring": 3070,
      "series": 3071,
      "##ose": 3072,
      "жок": 3073,
      "Just": 3074,
      "These": 3075,
      "euros": 3076,
      "##ого": 3077,
      "##ros": 3078,
      "After": 3079,
      "mille": 3080,
      "BMW": 3081,
      "professional": 3082,
      "этот": 3083,
      "около": 3084,
      "Standard": 3085,
      "pop": 3086,
      "##och": 3087,
      "##ab": 3088,
      "Florida": 3089,
      "sent": 3090,
      "жизни": 3091,
      "Donald": 3092,
      "mor": 3093,
      "camera": 3094,
      "##ss": 3095,
      "Nou": 3096,
      "##kel": 3097,
      "##hia": 3098,
      "##like": 3099,
      "##nos": 3100,
      "##ket": 3101,
      "already": 3102,
      "mos": 3103,
      "Centre": 3104,
      "##eta": 3105,
      "Antonio": 3106,
      "Adam": 3107,
      "MS": 3108,
      "##ай": 3109,
      "DA": 3110,
      "Hann": 3111,
      "try": 3112,
      "follow": 3113,
      "Union": 3114,
      "##est": 3115,
      "##нан": 3116,
      "##cja": 3117,
      "mine": 3118,
      "BBC": 3119,
      "month": 3120,
      "##ф": 3121,
      "Can": 3122,
      "##bus": 3123,
      "Kas": 3124,
      "casino": 3125,
      "AC": 3126,
      "grand": 3127,
      "##mm": 3128,
      "##ora": 3129,
      "ат": 3130,
      "млн": 3131,
      "youtube": 3132,
      "##sto": 3133,
      "##ese": 3134,
      "HTML": 3135,
      "интернет": 3136,
      "192": 3137,
      "First": 3138,
      "Up": 3139,
      "Bill": 3140,
      "River": 3141,
      "##sy": 3142,
      "card": 3143,
      "Dar": 3144,
      "thing": 3145,
      "##nas": 3146,
      "##tat": 3147,
      "##ori": 3148,
      "Eesti": 3149,
      "low": 3150,
      "##кой": 3151,
      "тем": 3152,
      "Gold": 3153,
      "bog": 3154,
      "ry": 3155,
      "Iran": 3156,
      "Henry": 3157,
      "##uta": 3158,
      "информация": 3159,
      "Manager": 3160,
      "##nica": 3161,
      "км": 3162,
      "##за": 3163,
      "##ise": 3164,
      "##дер": 3165,
      "studio": 3166,
      "##Q": 3167,
      "##ity": 3168,
      "students": 3169,
      "дел": 3170,
      "##ola": 3171,
      "##fo": 3172,
      "105": 3173,
      "Note": 3174,
      "##ico": 3175,
      "Joe": 3176,
      "Ол": 3177,
      "##ним": 3178,
      "##rie": 3179,
      "##ль": 3180,
      "Williams": 3181,
      "##less": 3182,
      "США": 3183,
      "##чна": 3184,
      "##if": 3185,
      "##ake": 3186,
      "Great": 3187,
      "sea": 3188,
      "box": 3189,
      "сайта": 3190,
      "Obama": 3191,
      "cz": 3192,
      "##sch": 3193,
      "##э": 3194,
      "ты": 3195,
      "EN": 3196,
      "games": 3197,
      "али": 3198,
      "tour": 3199,
      "partner": 3200,
      "Marie": 3201,
      "Chicago": 3202,
      "guru": 3203,
      "##net": 3204,
      "light": 3205,
      "application": 3206,
      "favor": 3207,
      "Health": 3208,
      "Lai": 3209,
      "VIDEO": 3210,
      "clients": 3211,
      "##®": 3212,
      "smartphone": 3213,
      "hours": 3214,
      "##tic": 3215,
      "cost": 3216,
      "Japan": 3217,
      "##din": 3218,
      "##bile": 3219,
      "##С": 3220,
      "##tsa": 3221,
      "##ib": 3222,
      "Ada": 3223,
      "##tal": 3224,
      "folk": 3225,
      "##aka": 3226,
      "##kar": 3227,
      "Not": 3228,
      "##gar": 3229,
      "вода": 3230,
      "##set": 3231,
      "premier": 3232,
      "metal": 3233,
      "dies": 3234,
      "performance": 3235,
      "вэ": 3236,
      "Ao": 3237,
      "sel": 3238,
      "##tie": 3239,
      "Hi": 3240,
      "CA": 3241,
      "Software": 3242,
      "перед": 3243,
      "сайте": 3244,
      "ар": 3245,
      "tro": 3246,
      "##nge": 3247,
      "буд": 3248,
      "Sun": 3249,
      "plant": 3250,
      "baby": 3251,
      "staff": 3252,
      "Tim": 3253,
      "##nni": 3254,
      "country": 3255,
      "Commons": 3256,
      "продукти": 3257,
      "##А": 3258,
      "Ei": 3259,
      "##ff": 3260,
      "Point": 3261,
      "receive": 3262,
      "других": 3263,
      "uk": 3264,
      "см": 3265,
      "Ina": 3266,
      "fall": 3267,
      "Forum": 3268,
      "value": 3269,
      "##ato": 3270,
      "images": 3271,
      "needs": 3272,
      "##ру": 3273,
      "sui": 3274,
      "Lan": 3275,
      "##isa": 3276,
      "##kou": 3277,
      "дня": 3278,
      "bent": 3279,
      "dog": 3280,
      "##xa": 3281,
      "Photo": 3282,
      "ever": 3283,
      "others": 3284,
      "festival": 3285,
      "##uan": 3286,
      "Це": 3287,
      "##isi": 3288,
      "Frank": 3289,
      "Marketing": 3290,
      "Miss": 3291,
      "##mat": 3292,
      "##iri": 3293,
      "##ix": 3294,
      "fo": 3295,
      "##Р": 3296,
      "Press": 3297,
      "phone": 3298,
      "Flash": 3299,
      "anno": 3300,
      "##kat": 3301,
      "Kad": 3302,
      "несколько": 3303,
      "##ee": 3304,
      "head": 3305,
      "Express": 3306,
      "night": 3307,
      "Sant": 3308,
      "Get": 3309,
      "Smart": 3310,
      "Angeles": 3311,
      "##sche": 3312,
      "добре": 3313,
      "Lub": 3314,
      "##kal": 3315,
      "browser": 3316,
      "drive": 3317,
      "##gang": 3318,
      "Und": 3319,
      "Ин": 3320,
      "Manchester": 3321,
      "лица": 3322,
      "basis": 3323,
      "##eve": 3324,
      "##ви": 3325,
      "##нинг": 3326,
      "которая": 3327,
      "offers": 3328,
      "До": 3329,
      "##ero": 3330,
      "th": 3331,
      "система": 3332,
      "##rer": 3333,
      "##oti": 3334,
      "450": 3335,
      "means": 3336,
      "места": 3337,
      "##ду": 3338,
      "Ve": 3339,
      "Mini": 3340,
      "##eg": 3341,
      "##gh": 3342,
      "SD": 3343,
      "1983": 3344,
      "vivo": 3345,
      "1982": 3346,
      "ова": 3347,
      "less": 3348,
      "DJ": 3349,
      "Scott": 3350,
      "conditions": 3351,
      "office": 3352,
      "будут": 3353,
      "##rna": 3354,
      "together": 3355,
      "момент": 3356,
      "##ев": 3357,
      "until": 3358,
      "##iva": 3359,
      "1950": 3360,
      "Pri": 3361,
      "ук": 3362,
      "##ые": 3363,
      "Log": 3364,
      "##RA": 3365,
      "says": 3366,
      "220": 3367,
      "col": 3368,
      "hit": 3369,
      "buy": 3370,
      "sett": 3371,
      "Alex": 3372,
      "research": 3373,
      "##ft": 3374,
      "NO": 3375,
      "fire": 3376,
      "source": 3377,
      "##ээр": 3378,
      "bad": 3379,
      "##чка": 3380,
      "##nika": 3381,
      "videos": 3382,
      "England": 3383,
      "From": 3384,
      "##аар": 3385,
      "##ата": 3386,
      "##urs": 3387,
      "chat": 3388,
      "всегда": 3389,
      "1945": 3390,
      "##the": 3391,
      "space": 3392,
      "diverse": 3393,
      "move": 3394,
      "Rwanda": 3395,
      "Master": 3396,
      "edi": 3397,
      "Series": 3398,
      "black": 3399,
      "Sir": 3400,
      "ind": 3401,
      "rock": 3402,
      "Test": 3403,
      "Kurdish": 3404,
      "Creek": 3405,
      "1979": 3406,
      "Steve": 3407,
      "После": 3408,
      "##ham": 3409,
      "##ков": 3410,
      "##ON": 3411,
      "ала": 3412,
      "##NG": 3413,
      "President": 3414,
      "platform": 3415,
      "соли": 3416,
      "transport": 3417,
      "##ono": 3418,
      "fr": 3419,
      "худ": 3420,
      "update": 3421,
      "##qa": 3422,
      "ker": 3423,
      "170": 3424,
      "makes": 3425,
      "park": 3426,
      "##cin": 3427,
      "links": 3428,
      "##ping": 3429,
      "Anh": 3430,
      "fe": 3431,
      "Kan": 3432,
      "minute": 3433,
      "##ция": 3434,
      "##los": 3435,
      "future": 3436,
      "visa": 3437,
      "often": 3438,
      "тези": 3439,
      "Sen": 3440,
      "либо": 3441,
      "##ster": 3442,
      "##jan": 3443,
      "##llo": 3444,
      "Вам": 3445,
      "become": 3446,
      "url": 3447,
      "человек": 3448,
      "##ag": 3449,
      "rate": 3450,
      "##10": 3451,
      "##ram": 3452,
      "##ып": 3453,
      "ир": 3454,
      "Africa": 3455,
      "период": 3456,
      "network": 3457,
      "sector": 3458,
      "save": 3459,
      "Restaurant": 3460,
      "Share": 3461,
      "##ый": 3462,
      "Ten": 3463,
      "log": 3464,
      "Linux": 3465,
      "##чу": 3466,
      "items": 3467,
      "Disney": 3468,
      "NY": 3469,
      "TP": 3470,
      "amor": 3471,
      "cat": 3472,
      "##NA": 3473,
      "Museum": 3474,
      "Deus": 3475,
      "1978": 3476,
      "##най": 3477,
      "Anne": 3478,
      "Model": 3479,
      "interior": 3480,
      "having": 3481,
      "Valley": 3482,
      "Journal": 3483,
      "##ными": 3484,
      "##сан": 3485,
      "##shi": 3486,
      "##vel": 3487,
      "Til": 3488,
      "##ins": 3489,
      "management": 3490,
      "имеет": 3491,
      "print": 3492,
      "Games": 3493,
      "Hollywood": 3494,
      "1975": 3495,
      "roa": 3496,
      "note": 3497,
      "1981": 3498,
      "message": 3499,
      "SE": 3500,
      "##ld": 3501,
      "свои": 3502,
      "bone": 3503,
      "дали": 3504,
      "Hot": 3505,
      "international": 3506,
      "##hed": 3507,
      "range": 3508,
      "LG": 3509,
      "именно": 3510,
      "##ust": 3511,
      "THE": 3512,
      "points": 3513,
      "Hal": 3514,
      "люди": 3515,
      "##ovi": 3516,
      "##mbo": 3517,
      "##ido": 3518,
      "##ени": 3519,
      "reading": 3520,
      "Bluetooth": 3521,
      "##ase": 3522,
      "spam": 3523,
      "Cross": 3524,
      "##ского": 3525,
      "unique": 3526,
      "Chrome": 3527,
      "risk": 3528,
      "##ich": 3529,
      "posts": 3530,
      "terra": 3531,
      "called": 3532,
      "Shop": 3533,
      "dollar": 3534,
      "CO": 3535,
      "##ик": 3536,
      "customer": 3537,
      "st": 3538,
      "pays": 3539,
      "front": 3540,
      "живот": 3541,
      "pet": 3542,
      "machine": 3543,
      "Welt": 3544,
      "options": 3545,
      "##lon": 3546,
      "##osa": 3547,
      "##yen": 3548,
      "Western": 3549,
      "mate": 3550,
      "PVC": 3551,
      "client": 3552,
      "##lli": 3553,
      "бид": 3554,
      "gmail": 3555,
      "##mar": 3556,
      "twitter": 3557,
      "Association": 3558,
      "Under": 3559,
      "features": 3560,
      "которых": 3561,
      "php": 3562,
      "##анд": 3563,
      "##ille": 3564,
      "Мин": 3565,
      "once": 3566,
      "nasa": 3567,
      "fis": 3568,
      "##ds": 3569,
      "##hana": 3570,
      "ft": 3571,
      "complete": 3572,
      "training": 3573,
      "РФ": 3574,
      "Huawei": 3575,
      "била": 3576,
      "##dia": 3577,
      "uni": 3578,
      "Deutschland": 3579,
      "Про": 3580,
      "бе": 3581,
      "capital": 3582,
      "##vis": 3583,
      "Korea": 3584,
      "shop": 3585,
      "##од": 3586,
      "##ком": 3587,
      "болот": 3588,
      "cos": 3589,
      "pay": 3590,
      "Net": 3591,
      "restaurant": 3592,
      "slot": 3593,
      "##hat": 3594,
      "вид": 3595,
      "Youtube": 3596,
      "comes": 3597,
      "Carlos": 3598,
      "##ена": 3599,
      "ici": 3600,
      "major": 3601,
      "##йн": 3602,
      "бил": 3603,
      "women": 3604,
      "friends": 3605,
      "ел": 3606,
      "##up": 3607,
      "key": 3608,
      "##ить": 3609,
      "superior": 3610,
      "##sis": 3611,
      "##́": 3612,
      "102": 3613,
      "law": 3614,
      "AI": 3615,
      "required": 3616,
      "guide": 3617,
      "##oi": 3618,
      "nk": 3619,
      "средства": 3620,
      "Cookie": 3621,
      "##ische": 3622,
      "Taylor": 3623,
      "Premium": 3624,
      "Sur": 3625,
      "lit": 3626,
      "Let": 3627,
      "along": 3628,
      "visit": 3629,
      "##lta": 3630,
      "##ega": 3631,
      "enough": 3632,
      "minimum": 3633,
      "##yla": 3634,
      "##zio": 3635,
      "Yen": 3636,
      "Pas": 3637,
      "##uz": 3638,
      "Box": 3639,
      "white": 3640,
      "Most": 3641,
      "##ime": 3642,
      "pp": 3643,
      "112": 3644,
      "часа": 3645,
      "Port": 3646,
      "four": 3647,
      "deri": 3648,
      "Young": 3649,
      "Set": 3650,
      "Come": 3651,
      "##rak": 3652,
      "Baby": 3653,
      "AM": 3654,
      "##tura": 3655,
      "##imi": 3656,
      "ins": 3657,
      "CEO": 3658,
      "Mountain": 3659,
      "мм": 3660,
      "##rne": 3661,
      "Kong": 3662,
      "Ann": 3663,
      "above": 3664,
      "111": 3665,
      "##kwa": 3666,
      "Mexico": 3667,
      "latest": 3668,
      "ita": 3669,
      "across": 3670,
      "virus": 3671,
      "error": 3672,
      "##thi": 3673,
      "getting": 3674,
      "##elo": 3675,
      "Rose": 3676,
      "Door": 3677,
      "128": 3678,
      "Sin": 3679,
      "Nacional": 3680,
      "Start": 3681,
      "Victoria": 3682,
      "short": 3683,
      "##don": 3684,
      "1974": 3685,
      "June": 3686,
      "British": 3687,
      "location": 3688,
      "##bili": 3689,
      "mars": 3690,
      "##zza": 3691,
      "##zia": 3692,
      "1976": 3693,
      "##del": 3694,
      "115": 3695,
      "table": 3696,
      "вот": 3697,
      "Costa": 3698,
      "ST": 3699,
      "technology": 3700,
      "Ze": 3701,
      "human": 3702,
      "Va": 3703,
      "##cm": 3704,
      "240": 3705,
      "yet": 3706,
      "mise": 3707,
      "Good": 3708,
      "unit": 3709,
      "report": 3710,
      "108": 3711,
      "didn": 3712,
      "least": 3713,
      "##bel": 3714,
      "ran": 3715,
      "104": 3716,
      "Ver": 3717,
      "От": 3718,
      "пры": 3719,
      "Drive": 3720,
      "##ulo": 3721,
      "example": 3722,
      "##via": 3723,
      "све": 3724,
      "bring": 3725,
      "Mercedes": 3726,
      "##wu": 3727,
      "Jackson": 3728,
      "##igh": 3729,
      "Mei": 3730,
      "articles": 3731,
      "request": 3732,
      "Line": 3733,
      "industry": 3734,
      "##lat": 3735,
      "Hong": 3736,
      "часто": 3737,
      "такой": 3738,
      "##kov": 3739,
      "таких": 3740,
      "option": 3741,
      "1977": 3742,
      "UV": 3743,
      "season": 3744,
      "Bob": 3745,
      "Nos": 3746,
      "##com": 3747,
      "внимание": 3748,
      "tale": 3749,
      "человека": 3750,
      "##å": 3751,
      "##cs": 3752,
      "War": 3753,
      "CE": 3754,
      "PS": 3755,
      "##imo": 3756,
      "Hai": 3757,
      "##ging": 3758,
      "position": 3759,
      "##wood": 3760,
      "unde": 3761,
      "1920": 3762,
      "Book": 3763,
      "wiki": 3764,
      "held": 3765,
      "Nach": 3766,
      "назад": 3767,
      "Mario": 3768,
      "API": 3769,
      "##чно": 3770,
      "друг": 3771,
      "weekend": 3772,
      "elo": 3773,
      "ideas": 3774,
      "103": 3775,
      "##ło": 3776,
      "1973": 3777,
      "Grande": 3778,
      "##ля": 3779,
      "Jr": 3780,
      "##unk": 3781,
      "##ати": 3782,
      "То": 3783,
      "750": 3784,
      "Fall": 3785,
      "PR": 3786,
      "nic": 3787,
      "win": 3788,
      "були": 3789,
      "Ул": 3790,
      "Airport": 3791,
      "Alla": 3792,
      "1972": 3793,
      "pm": 3794,
      "cause": 3795,
      "stress": 3796,
      "development": 3797,
      "individual": 3798,
      "тие": 3799,
      "match": 3800,
      "наш": 3801,
      "сделать": 3802,
      "Network": 3803,
      "Ut": 3804,
      "Pierre": 3805,
      "oe": 3806,
      "LinkedIn": 3807,
      "doesn": 3808,
      "##eng": 3809,
      "Little": 3810,
      "results": 3811,
      "Centro": 3812,
      "##хои": 3813,
      "mob": 3814,
      "Oslo": 3815,
      "production": 3816,
      "##ö": 3817,
      "members": 3818,
      "doing": 3819,
      "времени": 3820,
      "Sep": 3821,
      "##lio": 3822,
      "Portugal": 3823,
      "например": 3824,
      "##их": 3825,
      "##TE": 3826,
      "част": 3827,
      "##ish": 3828,
      "##ous": 3829,
      "Hoe": 3830,
      "##way": 3831,
      "known": 3832,
      "##iv": 3833,
      "##ит": 3834,
      "##ios": 3835,
      "##эд": 3836,
      "Science": 3837,
      "1968": 3838,
      "ine": 3839,
      "poker": 3840,
      "##ел": 3841,
      "toy": 3842,
      "Без": 3843,
      "actual": 3844,
      "##ral": 3845,
      "European": 3846,
      "Nokia": 3847,
      "Что": 3848,
      "res": 3849,
      "исто": 3850,
      "Market": 3851,
      "Analytics": 3852,
      "проблем": 3853,
      "Toyota": 3854,
      "##bil": 3855,
      "programma": 3856,
      "##mann": 3857,
      "close": 3858,
      "бизнес": 3859,
      "иш": 3860,
      "Pakistan": 3861,
      "##TA": 3862,
      "learn": 3863,
      "center": 3864,
      "##ско": 3865,
      "Аз": 3866,
      "##eli": 3867,
      "##nka": 3868,
      "##rn": 3869,
      "Find": 3870,
      "property": 3871,
      "вече": 3872,
      "систем": 3873,
      "term": 3874,
      "Dina": 3875,
      "map": 3876,
      "current": 3877,
      "member": 3878,
      "LCD": 3879,
      "president": 3880,
      "IL": 3881,
      "href": 3882,
      "често": 3883,
      "everything": 3884,
      "Alexander": 3885,
      "Federal": 3886,
      "кон": 3887,
      "situation": 3888,
      "Hotels": 3889,
      "Nord": 3890,
      "history": 3891,
      "Con": 3892,
      "Code": 3893,
      "##ves": 3894,
      "##ntes": 3895,
      "sex": 3896,
      "led": 3897,
      "nature": 3898,
      "student": 3899,
      "##iza": 3900,
      "tel": 3901,
      "July": 3902,
      "##эн": 3903,
      "building": 3904,
      "math": 3905,
      "panel": 3906,
      "яки": 3907,
      "мене": 3908,
      "##ngo": 3909,
      "continue": 3910,
      "кард": 3911,
      "Technology": 3912,
      "Party": 3913,
      "assim": 3914,
      "March": 3915,
      "##usi": 3916,
      "низ": 3917,
      "desta": 3918,
      "##issa": 3919,
      "Ban": 3920,
      "тим": 3921,
      "pr": 3922,
      "##лари": 3923,
      "started": 3924,
      "Pre": 3925,
      "particular": 3926,
      "##illa": 3927,
      "port": 3928,
      "volume": 3929,
      "actually": 3930,
      "1969": 3931,
      "central": 3932,
      "events": 3933,
      "Kevin": 3934,
      "Search": 3935,
      "though": 3936,
      "Change": 3937,
      "Sports": 3938,
      "OF": 3939,
      "Sarah": 3940,
      "ради": 3941,
      "PA": 3942,
      "Andrew": 3943,
      "credit": 3944,
      "several": 3945,
      "##щи": 3946,
      "Ман": 3947,
      "сме": 3948,
      "##зи": 3949,
      "Vegas": 3950,
      "##зе": 3951,
      "кор": 3952,
      "##ский": 3953,
      "##eti": 3954,
      "1200": 3955,
      "Milli": 3956,
      "##iet": 3957,
      "HIV": 3958,
      "Food": 3959,
      "1971": 3960,
      "max": 3961,
      "half": 3962,
      "своей": 3963,
      "услуги": 3964,
      "##aga": 3965,
      "Kenya": 3966,
      "рублей": 3967,
      "arra": 3968,
      "##ман": 3969,
      "Bij": 3970,
      "##aha": 3971,
      "government": 3972,
      "##can": 3973,
      "national": 3974,
      "будь": 3975,
      "##IN": 3976,
      "visas": 3977,
      "send": 3978,
      "одного": 3979,
      "paper": 3980,
      "Boston": 3981,
      "RT": 3982,
      "Are": 3983,
      "songs": 3984,
      "преди": 3985,
      "Ved": 3986,
      "Sri": 3987,
      "Elizabeth": 3988,
      "1967": 3989,
      "Via": 3990,
      "Spa": 3991,
      "travel": 3992,
      "##ell": 3993,
      "##ps": 3994,
      "Control": 3995,
      "тек": 3996,
      "106": 3997,
      "Album": 3998,
      "Вас": 3999,
      "Sau": 4000,
      "##ht": 4001,
      "бага": 4002,
      "However": 4003,
      "##eka": 4004,
      "##vali": 4005,
      "beautiful": 4006,
      "Sy": 4007,
      "##ции": 4008,
      "Auf": 4009,
      "##ses": 4010,
      "##ech": 4011,
      "record": 4012,
      "chance": 4013,
      "1940": 4014,
      "age": 4015,
      "##дин": 4016,
      "##tanga": 4017,
      "target": 4018,
      "решение": 4019,
      "Hans": 4020,
      "##ao": 4021,
      "стоит": 4022,
      "##ec": 4023,
      "##fer": 4024,
      "dele": 4025,
      "Simon": 4026,
      "title": 4027,
      "##lit": 4028,
      "Premier": 4029,
      "collection": 4030,
      "##ста": 4031,
      "##elle": 4032,
      "Gen": 4033,
      "точно": 4034,
      "living": 4035,
      "Kai": 4036,
      "информации": 4037,
      "iso": 4038,
      "##vas": 4039,
      "##con": 4040,
      "Golden": 4041,
      "Amsterdam": 4042,
      "Rs": 4043,
      "Honda": 4044,
      "companies": 4045,
      "director": 4046,
      "добро": 4047,
      "##lang": 4048,
      "минут": 4049,
      "Intel": 4050,
      "##mia": 4051,
      "FM": 4052,
      "суд": 4053,
      "##ува": 4054,
      "##чен": 4055,
      "fans": 4056,
      "multi": 4057,
      "##ская": 4058,
      "буй": 4059,
      "customers": 4060,
      "##mai": 4061,
      "Jim": 4062,
      "Like": 4063,
      "##су": 4064,
      "дом": 4065,
      "детей": 4066,
      "Visa": 4067,
      "dll": 4068,
      "Light": 4069,
      "##rte": 4070,
      "cy": 4071,
      "Research": 4072,
      "star": 4073,
      "return": 4074,
      "happy": 4075,
      "##car": 4076,
      "Project": 4077,
      "cover": 4078,
      "issues": 4079,
      "Person": 4080,
      "Chinese": 4081,
      "kie": 4082,
      "added": 4083,
      "security": 4084,
      "EA": 4085,
      "index": 4086,
      "лише": 4087,
      "carte": 4088,
      "Ми": 4089,
      "Foundation": 4090,
      "часу": 4091,
      "near": 4092,
      "PT": 4093,
      "Golf": 4094,
      "##ING": 4095,
      "RAM": 4096,
      "thought": 4097,
      "lau": 4098,
      "ст": 4099,
      "TO": 4100,
      "AB": 4101,
      "Institute": 4102,
      "Abu": 4103,
      "given": 4104,
      "##ito": 4105,
      "Avenue": 4106,
      "seen": 4107,
      "##hy": 4108,
      "1930": 4109,
      "provided": 4110,
      "Ah": 4111,
      "Ora": 4112,
      "WiFi": 4113,
      "sales": 4114,
      "Haz": 4115,
      "VIP": 4116,
      "арга": 4117,
      "cam": 4118,
      "Virginia": 4119,
      "##rus": 4120,
      "Car": 4121,
      "Check": 4122,
      "similar": 4123,
      "study": 4124,
      "Family": 4125,
      "##ил": 4126,
      "Edward": 4127,
      "PP": 4128,
      "deal": 4129,
      "Ef": 4130,
      "early": 4131,
      "favorite": 4132,
      "charge": 4133,
      "outra": 4134,
      "##jet": 4135,
      "##во": 4136,
      "##erd": 4137,
      "int": 4138,
      "##eur": 4139,
      "##sson": 4140,
      "Or": 4141,
      "##tada": 4142,
      "double": 4143,
      "Pedro": 4144,
      "Luis": 4145,
      "Ano": 4146,
      "Band": 4147,
      "##jar": 4148,
      "published": 4149,
      "107": 4150,
      "##ota": 4151,
      "##burg": 4152,
      "Ryan": 4153,
      "bas": 4154,
      "##OS": 4155,
      "French": 4156,
      "Fort": 4157,
      "##€": 4158,
      "meaning": 4159,
      "пен": 4160,
      "##до": 4161,
      "Pan": 4162,
      "##лик": 4163,
      "heart": 4164,
      "##sed": 4165,
      "##лен": 4166,
      "among": 4167,
      "1965": 4168,
      "##IS": 4169,
      "части": 4170,
      "fear": 4171,
      "Vai": 4172,
      "Forex": 4173,
      "##ngu": 4174,
      "sto": 4175,
      "users": 4176,
      "came": 4177,
      "##gy": 4178,
      "##М": 4179,
      "##ие": 4180,
      "issue": 4181,
      "master": 4182,
      "element": 4183,
      "Како": 4184,
      "Liverpool": 4185,
      "Name": 4186,
      "Also": 4187,
      "##ване": 4188,
      "SP": 4189,
      "##ете": 4190,
      "Netflix": 4191,
      "Public": 4192,
      "поэтому": 4193,
      "bene": 4194,
      "Lord": 4195,
      "Ama": 4196,
      "related": 4197,
      "someone": 4198,
      "могу": 4199,
      "Main": 4200,
      "Fa": 4201,
      "newsletter": 4202,
      "Argentina": 4203,
      "pH": 4204,
      "pages": 4205,
      "##aza": 4206,
      "dema": 4207,
      "5G": 4208,
      "male": 4209,
      "Hay": 4210,
      "##lag": 4211,
      "Ed": 4212,
      "Spring": 4213,
      "energy": 4214,
      "135": 4215,
      "лучше": 4216,
      "##пен": 4217,
      "##ful": 4218,
      "MA": 4219,
      "##ас": 4220,
      "##чни": 4221,
      "Fig": 4222,
      "CO2": 4223,
      "ве": 4224,
      "##ве": 4225,
      "labi": 4226,
      "true": 4227,
      "служба": 4228,
      "Albert": 4229,
      "Comment": 4230,
      "Church": 4231,
      "##lus": 4232,
      "##dal": 4233,
      "##ген": 4234,
      "Ech": 4235,
      "privacy": 4236,
      "portal": 4237,
      "1944": 4238,
      "##ES": 4239,
      "clear": 4240,
      "Information": 4241,
      "цел": 4242,
      "Pak": 4243,
      "365": 4244,
      "190": 4245,
      "ваш": 4246,
      "Daily": 4247,
      "zone": 4248,
      "exe": 4249,
      "##ard": 4250,
      "Wall": 4251,
      "##ium": 4252,
      "took": 4253,
      "taken": 4254,
      "Town": 4255,
      "дней": 4256,
      "books": 4257,
      "gov": 4258,
      "эти": 4259,
      "Nov": 4260,
      "##vin": 4261,
      "iTunes": 4262,
      "Xbox": 4263,
      "Station": 4264,
      "##ici": 4265,
      "pool": 4266,
      "Next": 4267,
      "##log": 4268,
      "##П": 4269,
      "##ding": 4270,
      "fact": 4271,
      "Will": 4272,
      "Со": 4273,
      "##они": 4274,
      "Image": 4275,
      "109": 4276,
      "Bad": 4277,
      "##fen": 4278,
      "##MA": 4279,
      "##ун": 4280,
      "NBA": 4281,
      "Kur": 4282,
      "five": 4283,
      "Plan": 4284,
      "##ev": 4285,
      "Some": 4286,
      "нови": 4287,
      "period": 4288,
      "whole": 4289,
      "Last": 4290,
      "##ego": 4291,
      "IS": 4292,
      "Manuel": 4293,
      "Santiago": 4294,
      "fu": 4295,
      "Chi": 4296,
      "##eo": 4297,
      "imma": 4298,
      "Ray": 4299,
      "##oma": 4300,
      "shows": 4301,
      "##К": 4302,
      "дни": 4303,
      "Hun": 4304,
      "HR": 4305,
      "Papa": 4306,
      "Diego": 4307,
      "October": 4308,
      "4000": 4309,
      "Dictionary": 4310,
      "##bb": 4311,
      "возможность": 4312,
      "Patrick": 4313,
      "Community": 4314,
      "field": 4315,
      "Care": 4316,
      "present": 4317,
      "каде": 4318,
      "##nk": 4319,
      "oil": 4320,
      "320": 4321,
      "went": 4322,
      "##ip": 4323,
      "enjoy": 4324,
      "##ек": 4325,
      "##тары": 4326,
      "UN": 4327,
      "##uti": 4328,
      "screen": 4329,
      "##har": 4330,
      "AP": 4331,
      "Indian": 4332,
      "Motor": 4333,
      "Jose": 4334,
      "hold": 4335,
      "tablet": 4336,
      "##esi": 4337,
      "works": 4338,
      "driver": 4339,
      "display": 4340,
      "solution": 4341,
      "raz": 4342,
      "##swa": 4343,
      "слова": 4344,
      "Limited": 4345,
      "Bild": 4346,
      "provides": 4347,
      "друга": 4348,
      "Lady": 4349,
      "##гу": 4350,
      "Why": 4351,
      "##inu": 4352,
      "##bat": 4353,
      "више": 4354,
      "hen": 4355,
      "young": 4356,
      "flash": 4357,
      "Eric": 4358,
      "##mes": 4359,
      "Jalan": 4360,
      "##Д": 4361,
      "cool": 4362,
      "##gia": 4363,
      "1941": 4364,
      "gain": 4365,
      "postal": 4366,
      "Hospital": 4367,
      "Carolina": 4368,
      "Европа": 4369,
      "ему": 4370,
      "почти": 4371,
      "##ella": 4372,
      "##ая": 4373,
      "Tony": 4374,
      "количество": 4375,
      "Garden": 4376,
      "believe": 4377,
      "##Т": 4378,
      "сейчас": 4379,
      "parents": 4380,
      "COM": 4381,
      "specific": 4382,
      "Muhammad": 4383,
      "##тен": 4384,
      "wi": 4385,
      "ма": 4386,
      "Россия": 4387,
      "dk": 4388,
      "SC": 4389,
      "Ca": 4390,
      "People": 4391,
      "nice": 4392,
      "third": 4393,
      "Friday": 4394,
      "##olo": 4395,
      "piano": 4396,
      "Matt": 4397,
      "##tek": 4398,
      "##wr": 4399,
      "AT": 4400,
      "##ize": 4401,
      "##ща": 4402,
      "230": 4403,
      "здесь": 4404,
      "icon": 4405,
      "гол": 4406,
      "talk": 4407,
      "kids": 4408,
      "protection": 4409,
      "##ema": 4410,
      "rest": 4411,
      "компания": 4412,
      "Singapore": 4413,
      "Audio": 4414,
      "profile": 4415,
      "liq": 4416,
      "##dus": 4417,
      "##И": 4418,
      "##тся": 4419,
      "Milan": 4420,
      "Wilson": 4421,
      "Fox": 4422,
      "Society": 4423,
      "Они": 4424,
      "##vy": 4425,
      "pin": 4426,
      "##tz": 4427,
      "bada": 4428,
      "всё": 4429,
      "##bles": 4430,
      "certain": 4431,
      "Од": 4432,
      "laptop": 4433,
      "views": 4434,
      "помощью": 4435,
      "##tive": 4436,
      "1900": 4437,
      "Chelsea": 4438,
      "##dra": 4439,
      "plans": 4440,
      "mp4": 4441,
      "##нун": 4442,
      "NATO": 4443,
      "Tam": 4444,
      "проект": 4445,
      "track": 4446,
      "1964": 4447,
      "GHz": 4448,
      "Vista": 4449,
      "дело": 4450,
      "Price": 4451,
      "##xe": 4452,
      "Pe": 4453,
      "soon": 4454,
      "игра": 4455,
      "##ngi": 4456,
      "Thanks": 4457,
      "пад": 4458,
      "transfer": 4459,
      "Cara": 4460,
      "dad": 4461,
      "##°": 4462,
      "fund": 4463,
      "##eke": 4464,
      "Area": 4465,
      "Jehovah": 4466,
      "##нето": 4467,
      "##EN": 4468,
      "нар": 4469,
      "##ism": 4470,
      "##field": 4471,
      "тоже": 4472,
      "iii": 4473,
      "надо": 4474,
      "sort": 4475,
      "ONE": 4476,
      "всем": 4477,
      "role": 4478,
      "culture": 4479,
      "##ub": 4480,
      "mayor": 4481,
      "другие": 4482,
      "Bible": 4483,
      "tub": 4484,
      "118": 4485,
      "##tum": 4486,
      "Well": 4487,
      "добра": 4488,
      "protein": 4489,
      "build": 4490,
      "Prof": 4491,
      "биз": 4492,
      "meet": 4493,
      "ready": 4494,
      "taking": 4495,
      "##ол": 4496,
      "Mat": 4497,
      "result": 4498,
      "##жа": 4499,
      "Today": 4500,
      "##ске": 4501,
      "child": 4502,
      "##ката": 4503,
      "purchase": 4504,
      "био": 4505,
      "##bet": 4506,
      "VII": 4507,
      "Type": 4508,
      "anything": 4509,
      "Ju": 4510,
      "Cloud": 4511,
      "Kinder": 4512,
      "impact": 4513,
      "##па": 4514,
      "lake": 4515,
      "##20": 4516,
      "##ett": 4517,
      "Jersey": 4518,
      "114": 4519,
      "##али": 4520,
      "##gs": 4521,
      "1939": 4522,
      "##king": 4523,
      "##ид": 4524,
      "cannot": 4525,
      "friend": 4526,
      "pass": 4527,
      "writing": 4528,
      "includes": 4529,
      "Enter": 4530,
      "##tica": 4531,
      "##her": 4532,
      "##cher": 4533,
      "175": 4534,
      "Add": 4535,
      "sign": 4536,
      "Copyright": 4537,
      "1966": 4538,
      "##ges": 4539,
      "understand": 4540,
      "##ces": 4541,
      "##ыя": 4542,
      "couple": 4543,
      "Night": 4544,
      "drama": 4545,
      "Use": 4546,
      "##zer": 4547,
      "##ivo": 4548,
      "estate": 4549,
      "двух": 4550,
      "течение": 4551,
      "##ному": 4552,
      "Corporation": 4553,
      "Той": 4554,
      "##AR": 4555,
      "хора": 4556,
      "everyone": 4557,
      "##ала": 4558,
      "1918": 4559,
      "##ците": 4560,
      "Егер": 4561,
      "premium": 4562,
      "телефон": 4563,
      "##lash": 4564,
      "golf": 4565,
      "##ре": 4566,
      "Era": 4567,
      "moral": 4568,
      "Part": 4569,
      "##nut": 4570,
      "##enda": 4571,
      "##mon": 4572,
      "Delhi": 4573,
      "turn": 4574,
      "123": 4575,
      "Cha": 4576,
      "ensemble": 4577,
      "##tto": 4578,
      "стала": 4579,
      "Gran": 4580,
      "##вати": 4581,
      "##ина": 4582,
      "води": 4583,
      "billi": 4584,
      "должны": 4585,
      "Laura": 4586,
      "Marina": 4587,
      "sha": 4588,
      "направи": 4589,
      "focus": 4590,
      "##op": 4591,
      "град": 4592,
      "мора": 4593,
      "Porto": 4594,
      "##ана": 4595,
      "words": 4596,
      "1800": 4597,
      "Vol": 4598,
      "Sunday": 4599,
      "Earth": 4600,
      "Serie": 4601,
      "города": 4602,
      "ние": 4603,
      "stay": 4604,
      "##или": 4605,
      "December": 4606,
      "District": 4607,
      "miss": 4608,
      "trading": 4609,
      "girl": 4610,
      "##port": 4611,
      "##var": 4612,
      "ту": 4613,
      "sna": 4614,
      "Thank": 4615,
      "##isk": 4616,
      "shopping": 4617,
      "span": 4618,
      "210": 4619,
      "device": 4620,
      "##жи": 4621,
      "Christmas": 4622,
      "##pt": 4623,
      "tell": 4624,
      "hate": 4625,
      "PE": 4626,
      "Capital": 4627,
      "##each": 4628,
      "Zo": 4629,
      "прави": 4630,
      "##AL": 4631,
      "Excel": 4632,
      "vitamin": 4633,
      "rite": 4634,
      "budget": 4635,
      "ts": 4636,
      "119": 4637,
      "whether": 4638,
      "которой": 4639,
      "sir": 4640,
      "Review": 4641,
      "Total": 4642,
      "ним": 4643,
      "##ед": 4644,
      "веб": 4645,
      "кеше": 4646,
      "language": 4647,
      "recent": 4648,
      "Mount": 4649,
      "##tsi": 4650,
      "##LA": 4651,
      "former": 4652,
      "##лся": 4653,
      "Square": 4654,
      "designed": 4655,
      "either": 4656,
      "Vietnam": 4657,
      "His": 4658,
      "forex": 4659,
      "##nci": 4660,
      "player": 4661,
      "##pas": 4662,
      "quasi": 4663,
      "Adobe": 4664,
      "##uli": 4665,
      "##лись": 4666,
      "step": 4667,
      "Miller": 4668,
      "##nze": 4669,
      "Marc": 4670,
      "##cat": 4671,
      "reviews": 4672,
      "Stephen": 4673,
      "##ника": 4674,
      "Монгол": 4675,
      "1962": 4676,
      "vele": 4677,
      "##gel": 4678,
      "Call": 4679,
      "Arts": 4680,
      "Алар": 4681,
      "##ност": 4682,
      "самых": 4683,
      "аж": 4684,
      "clip": 4685,
      "parts": 4686,
      "Thailand": 4687,
      "choose": 4688,
      "fort": 4689,
      "Space": 4690,
      "важно": 4691,
      "common": 4692,
      "Харин": 4693,
      "##ського": 4694,
      "кг": 4695,
      "##аас": 4696,
      "1963": 4697,
      "Brian": 4698,
      "alia": 4699,
      "цена": 4700,
      "ask": 4701,
      "##dla": 4702,
      "apps": 4703,
      "##ford": 4704,
      "##сон": 4705,
      "mental": 4706,
      "своих": 4707,
      "While": 4708,
      "gay": 4709,
      "shu": 4710,
      "Sky": 4711,
      "##ском": 4712,
      "Miami": 4713,
      "##vati": 4714,
      "##50": 4715,
      "Awards": 4716,
      "##oka": 4717,
      "форма": 4718,
      "##Н": 4719,
      "##wn": 4720,
      "Ова": 4721,
      "learning": 4722,
      "##kia": 4723,
      "казино": 4724,
      "##оо": 4725,
      "Се": 4726,
      "Jane": 4727,
      "needed": 4728,
      "должен": 4729,
      "Lewis": 4730,
      "lt": 4731,
      "Russia": 4732,
      "баш": 4733,
      "positive": 4734,
      "ООД": 4735,
      "Kana": 4736,
      "roll": 4737,
      "Java": 4738,
      "redes": 4739,
      "bed": 4740,
      "Security": 4741,
      "##той": 4742,
      "Theo": 4743,
      "January": 4744,
      "areas": 4745,
      "MP4": 4746,
      "police": 4747,
      "RS": 4748,
      "Form": 4749,
      "iv": 4750,
      "Sve": 4751,
      "VR": 4752,
      "types": 4753,
      "использовать": 4754,
      "judi": 4755,
      "files": 4756,
      "Asi": 4757,
      "board": 4758,
      "##yt": 4759,
      "shine": 4760,
      "Nick": 4761,
      "Word": 4762,
      "section": 4763,
      "yourself": 4764,
      "policy": 4765,
      "##rati": 4766,
      "delivery": 4767,
      "Sea": 4768,
      "##нен": 4769,
      "##yar": 4770,
      "##ню": 4771,
      "121": 4772,
      "else": 4773,
      "255": 4774,
      "113": 4775,
      "smart": 4776,
      "1961": 4777,
      "##oli": 4778,
      "ко": 4779,
      "качество": 4780,
      "road": 4781,
      "sad": 4782,
      "Bha": 4783,
      "бала": 4784,
      "##mbi": 4785,
      "created": 4786,
      "1948": 4787,
      "##ute": 4788,
      "Medical": 4789,
      "ата": 4790,
      "##house": 4791,
      "##ских": 4792,
      "Plaza": 4793,
      "##нг": 4794,
      "эки": 4795,
      "получить": 4796,
      "Make": 4797,
      "пак": 4798,
      "тя": 4799,
      "release": 4800,
      "changes": 4801,
      "Joan": 4802,
      "Samuel": 4803,
      "Card": 4804,
      "subject": 4805,
      "Fe": 4806,
      "Region": 4807,
      "Marco": 4808,
      "CC": 4809,
      "SIM": 4810,
      "Id": 4811,
      "##ать": 4812,
      "жер": 4813,
      "Davis": 4814,
      "##О": 4815,
      "Att": 4816,
      "ray": 4817,
      "mean": 4818,
      "official": 4819,
      "lead": 4820,
      "cultural": 4821,
      "sak": 4822,
      "##war": 4823,
      "##тор": 4824,
      "##US": 4825,
      "##ove": 4826,
      "##nts": 4827,
      "116": 4828,
      "##bank": 4829,
      "coming": 4830,
      "##tore": 4831,
      "Von": 4832,
      "various": 4833,
      "##KA": 4834,
      "##gon": 4835,
      "weeks": 4836,
      "interest": 4837,
      "DI": 4838,
      "##ват": 4839,
      "Status": 4840,
      "##RE": 4841,
      "ms": 4842,
      "especially": 4843,
      "Tel": 4844,
      "##nsa": 4845,
      "Academy": 4846,
      "fashion": 4847,
      "np": 4848,
      "Award": 4849,
      "Bio": 4850,
      "AG": 4851,
      "Kr": 4852,
      "Ele": 4853,
      "chose": 4854,
      "##lim": 4855,
      "план": 4856,
      "medical": 4857,
      "##DA": 4858,
      "Oni": 4859,
      "##end": 4860,
      "OEM": 4861,
      "GmbH": 4862,
      "Over": 4863,
      "Fra": 4864,
      "условия": 4865,
      "Mir": 4866,
      "Suite": 4867,
      "solutions": 4868,
      "looks": 4869,
      "##det": 4870,
      "block": 4871,
      "ON": 4872,
      "##У": 4873,
      "бара": 4874,
      "tion": 4875,
      "running": 4876,
      "##ити": 4877,
      "AR": 4878,
      "номер": 4879,
      "Material": 4880,
      "##fall": 4881,
      "touch": 4882,
      "када": 4883,
      "almost": 4884,
      "системы": 4885,
      "homes": 4886,
      "##LE": 4887,
      "tea": 4888,
      "собой": 4889,
      "сум": 4890,
      "Dam": 4891,
      "##zar": 4892,
      "##ando": 4893,
      "DIY": 4894,
      "ling": 4895,
      "Anti": 4896,
      "cut": 4897,
      "любой": 4898,
      "CV": 4899,
      "leave": 4900,
      "six": 4901,
      "##ule": 4902,
      "Ба": 4903,
      "##ac": 4904,
      "Milano": 4905,
      "regular": 4906,
      "145": 4907,
      "Channel": 4908,
      "##ию": 4909,
      "##eza": 4910,
      "##ldi": 4911,
      "лишь": 4912,
      "domain": 4913,
      "##ву": 4914,
      "##uni": 4915,
      "Yes": 4916,
      "comments": 4917,
      "attention": 4918,
      "Del": 4919,
      "Year": 4920,
      "ball": 4921,
      "кое": 4922,
      "Kao": 4923,
      "Court": 4924,
      "Ata": 4925,
      "деньги": 4926,
      "##xo": 4927,
      "##она": 4928,
      "##rsi": 4929,
      "##ници": 4930,
      "Orange": 4931,
      "чрез": 4932,
      "Happy": 4933,
      "KB": 4934,
      "document": 4935,
      "##gal": 4936,
      "##hle": 4937,
      "Ex": 4938,
      "apply": 4939,
      "Nur": 4940,
      "##eda": 4941,
      "Chan": 4942,
      "работу": 4943,
      "LE": 4944,
      "programme": 4945,
      "Edition": 4946,
      "federal": 4947,
      "117": 4948,
      "##вали": 4949,
      "simply": 4950,
      "password": 4951,
      "##лу": 4952,
      "делать": 4953,
      "##cer": 4954,
      "##уу": 4955,
      "следует": 4956,
      "ie": 4957,
      "650": 4958,
      "awa": 4959,
      "takes": 4960,
      "ly": 4961,
      "ren": 4962,
      "София": 4963,
      "Place": 4964,
      "rede": 4965,
      "##bal": 4966,
      "##dio": 4967,
      "наших": 4968,
      "gift": 4969,
      "sat": 4970,
      "Oscar": 4971,
      "Cruz": 4972,
      "каждый": 4973,
      "122": 4974,
      "cor": 4975,
      "##isten": 4976,
      "serve": 4977,
      "told": 4978,
      "professor": 4979,
      "Class": 4980,
      "хорошо": 4981,
      "След": 4982,
      "totale": 4983,
      "Meta": 4984,
      "ways": 4985,
      "Eva": 4986,
      "Classic": 4987,
      "##cho": 4988,
      "Dubai": 4989,
      "further": 4990,
      "tools": 4991,
      "Sud": 4992,
      "trip": 4993,
      "Toronto": 4994,
      "construction": 4995,
      "1956": 4996,
      "##ap": 4997,
      "##нага": 4998,
      "Roman": 4999,
      "AD": 5000,
      "diversi": 5001,
      "Champions": 5002,
      "wanted": 5003,
      "##ming": 5004,
      "Audi": 5005,
      "hospital": 5006,
      "127": 5007,
      "fitness": 5008,
      "такое": 5009,
      "1959": 5010,
      "роботи": 5011,
      "Queen": 5012,
      "acqua": 5013,
      "аль": 5014,
      "Ref": 5015,
      "тех": 5016,
      "##rade": 5017,
      "amount": 5018,
      "DO": 5019,
      "##zne": 5020,
      "continua": 5021,
      "quite": 5022,
      "##ниот": 5023,
      "CS": 5024,
      "Text": 5025,
      "NUM": 5026,
      "trying": 5027,
      "fond": 5028,
      "grave": 5029,
      "manual": 5030,
      "##ique": 5031,
      "Explorer": 5032,
      "Anthony": 5033,
      "##eu": 5034,
      "##щ": 5035,
      "Ob": 5036,
      "##шка": 5037,
      "Travel": 5038,
      "Khi": 5039,
      "##ец": 5040,
      "Village": 5041,
      "skin": 5042,
      "Mann": 5043,
      "reason": 5044,
      "CT": 5045,
      "Fire": 5046,
      "XIX": 5047,
      "Vector": 5048,
      "Bo": 5049,
      "света": 5050,
      "Junior": 5051,
      "mani": 5052,
      "amp": 5053,
      "вели": 5054,
      "##py": 5055,
      "мае": 5056,
      "EL": 5057,
      "kit": 5058,
      "Water": 5059,
      "teng": 5060,
      "force": 5061,
      "Pop": 5062,
      "стали": 5063,
      "1958": 5064,
      "pretty": 5065,
      "били": 5066,
      "##oon": 5067,
      "эми": 5068,
      "financial": 5069,
      "formula": 5070,
      "##ain": 5071,
      "Machine": 5072,
      "buri": 5073,
      "позволяет": 5074,
      "Act": 5075,
      "region": 5076,
      "##вы": 5077,
      "host": 5078,
      "1947": 5079,
      "##ues": 5080,
      "дзе": 5081,
      "сразу": 5082,
      "Singh": 5083,
      "abo": 5084,
      "Кыргыз": 5085,
      "Fashion": 5086,
      "Latin": 5087,
      "280": 5088,
      "terms": 5089,
      "##dne": 5090,
      "##дай": 5091,
      "550": 5092,
      "aide": 5093,
      "##ole": 5094,
      "probably": 5095,
      "piece": 5096,
      "ду": 5097,
      "##бек": 5098,
      "##ното": 5099,
      "Jason": 5100,
      "Tech": 5101,
      "##ern": 5102,
      "pad": 5103,
      "XXX": 5104,
      "Kelly": 5105,
      "##AS": 5106,
      "Ну": 5107,
      "Development": 5108,
      "bak": 5109,
      "3d": 5110,
      "Aug": 5111,
      "Bus": 5112,
      "##pad": 5113,
      "##ности": 5114,
      "Jun": 5115,
      "##dig": 5116,
      "##list": 5117,
      "ABC": 5118,
      "feature": 5119,
      "##get": 5120,
      "mix": 5121,
      "SQL": 5122,
      "effect": 5123,
      "нест": 5124,
      "##rdi": 5125,
      "medium": 5126,
      "##sat": 5127,
      "##ering": 5128,
      "Lisa": 5129,
      "чего": 5130,
      "спорт": 5131,
      "##mal": 5132,
      "CPU": 5133,
      "animal": 5134,
      "Andrea": 5135,
      "mem": 5136,
      "Kate": 5137,
      "safe": 5138,
      "образом": 5139,
      "Follow": 5140,
      "Ave": 5141,
      "##cas": 5142,
      "Leo": 5143,
      "##rk": 5144,
      "Ga": 5145,
      "виде": 5146,
      "ABS": 5147,
      "rights": 5148,
      "жизнь": 5149,
      "problems": 5150,
      "Она": 5151,
      "Jordan": 5152,
      "##umi": 5153,
      "late": 5154,
      "Sydney": 5155,
      "civil": 5156,
      "Однако": 5157,
      "Ag": 5158,
      "144": 5159,
      "Datum": 5160,
      "пока": 5161,
      "##IA": 5162,
      "Hand": 5163,
      "located": 5164,
      "Women": 5165,
      "##tre": 5166,
      "background": 5167,
      "produce": 5168,
      "такие": 5169,
      "Energy": 5170,
      "seal": 5171,
      "вопрос": 5172,
      "##ans": 5173,
      "edu": 5174,
      "4K": 5175,
      "качестве": 5176,
      "Board": 5177,
      "Nintendo": 5178,
      "##ини": 5179,
      "Eng": 5180,
      "hotels": 5181,
      "001": 5182,
      "Georgia": 5183,
      "VIII": 5184,
      "##30": 5185,
      "##лап": 5186,
      "124": 5187,
      "##нде": 5188,
      "##oo": 5189,
      "cancer": 5190,
      "places": 5191,
      "##ники": 5192,
      "своего": 5193,
      "жа": 5194,
      "agent": 5195,
      "Morgan": 5196,
      "Ще": 5197,
      "ка": 5198,
      "forward": 5199,
      "##ntu": 5200,
      "aa": 5201,
      "жена": 5202,
      "percent": 5203,
      "Special": 5204,
      "Notre": 5205,
      "Duke": 5206,
      "1957": 5207,
      "Version": 5208,
      "Education": 5209,
      "1942": 5210,
      "android": 5211,
      "mark": 5212,
      "организации": 5213,
      "Police": 5214,
      "Tanzania": 5215,
      "summer": 5216,
      "Alt": 5217,
      "green": 5218,
      "join": 5219,
      "stories": 5220,
      "##tate": 5221,
      "Computer": 5222,
      "NEW": 5223,
      "Nike": 5224,
      "стане": 5225,
      "glad": 5226,
      "grandi": 5227,
      "XP": 5228,
      "firm": 5229,
      "##lie": 5230,
      "168": 5231,
      "MD": 5232,
      "ня": 5233,
      "Miguel": 5234,
      "robot": 5235,
      "wit": 5236,
      "zip": 5237,
      "ensure": 5238,
      "Ball": 5239,
      "##gun": 5240,
      "maximum": 5241,
      "##Б": 5242,
      "allow": 5243,
      "##лна": 5244,
      "Ces": 5245,
      "isn": 5246,
      "Mal": 5247,
      "одна": 5248,
      "speed": 5249,
      "мало": 5250,
      "picture": 5251,
      "wide": 5252,
      "##back": 5253,
      "##24": 5254,
      "upon": 5255,
      "##ike": 5256,
      "education": 5257,
      "##pis": 5258,
      "dim": 5259,
      "потому": 5260,
      "aw": 5261,
      "Department": 5262,
      "num": 5263,
      "matter": 5264,
      "##ef": 5265,
      "##zon": 5266,
      "одной": 5267,
      "Original": 5268,
      "route": 5269,
      "NASA": 5270,
      "Story": 5271,
      "BA": 5272,
      "laser": 5273,
      "systems": 5274,
      "trend": 5275,
      "longer": 5276,
      "##цу": 5277,
      "этих": 5278,
      "##tem": 5279,
      "##tele": 5280,
      "##ws": 5281,
      "Newsletter": 5282,
      "amazing": 5283,
      "Emma": 5284,
      "groupe": 5285,
      "##нар": 5286,
      "File": 5287,
      "Canon": 5288,
      "##dis": 5289,
      "outside": 5290,
      "##ary": 5291,
      "##bra": 5292,
      "currently": 5293,
      "Prince": 5294,
      "miles": 5295,
      "tool": 5296,
      "films": 5297,
      "Wars": 5298,
      "##овой": 5299,
      "часть": 5300,
      "Law": 5301,
      "1914": 5302,
      "behind": 5303,
      "##une": 5304,
      "practice": 5305,
      "saw": 5306,
      "topic": 5307,
      "1943": 5308,
      "Civil": 5309,
      "СССР": 5310,
      "Two": 5311,
      "German": 5312,
      "Justin": 5313,
      "##sar": 5314,
      "Allen": 5315,
      "##af": 5316,
      "filter": 5317,
      "срок": 5318,
      "быстро": 5319,
      "миллион": 5320,
      "##ün": 5321,
      "анда": 5322,
      "##oko": 5323,
      "##nal": 5324,
      "button": 5325,
      "semi": 5326,
      "excellent": 5327,
      "материал": 5328,
      "2500": 5329,
      "treatment": 5330,
      "Info": 5331,
      "manager": 5332,
      "Telefon": 5333,
      "Inter": 5334,
      "Problem": 5335,
      "Тоа": 5336,
      "knowledge": 5337,
      "Sara": 5338,
      "timer": 5339,
      "friendly": 5340,
      "##bas": 5341,
      "##лау": 5342,
      "Thai": 5343,
      "Kei": 5344,
      "ix": 5345,
      "IBM": 5346,
      "science": 5347,
      "Colorado": 5348,
      "MP": 5349,
      "typ": 5350,
      "Force": 5351,
      "mira": 5352,
      "пример": 5353,
      "легко": 5354,
      "126": 5355,
      "Core": 5356,
      "ui": 5357,
      "сегодня": 5358,
      "##imit": 5359,
      "Anderson": 5360,
      "FA": 5361,
      "Guide": 5362,
      "received": 5363,
      "1946": 5364,
      "Update": 5365,
      "maj": 5366,
      "built": 5367,
      "Guru": 5368,
      "155": 5369,
      "written": 5370,
      "nothing": 5371,
      "pic": 5372,
      "##rti": 5373,
      "dis": 5374,
      "достаточно": 5375,
      "##kk": 5376,
      "##uro": 5377,
      "дела": 5378,
      "165": 5379,
      "Bali": 5380,
      "Firefox": 5381,
      "живота": 5382,
      "##xi": 5383,
      "Alice": 5384,
      "директор": 5385,
      "sake": 5386,
      "write": 5387,
      "##ог": 5388,
      "XL": 5389,
      "Тэр": 5390,
      "stage": 5391,
      "##ngen": 5392,
      "##board": 5393,
      "май": 5394,
      "Then": 5395,
      "##dim": 5396,
      "Director": 5397,
      "Player": 5398,
      "café": 5399,
      "Tan": 5400,
      "лице": 5401,
      "admin": 5402,
      "Metro": 5403,
      "inside": 5404,
      "additional": 5405,
      "##bia": 5406,
      "##aire": 5407,
      "нив": 5408,
      "Council": 5409,
      "Бид": 5410,
      "##чных": 5411,
      "propose": 5412,
      "opera": 5413,
      "Palace": 5414,
      "sports": 5415,
      "##tri": 5416,
      "Uz": 5417,
      "беру": 5418,
      "##tou": 5419,
      "break": 5420,
      "Saudi": 5421,
      "Haus": 5422,
      "differenti": 5423,
      "round": 5424,
      "Partner": 5425,
      "Также": 5426,
      "shirt": 5427,
      "boy": 5428,
      "rele": 5429,
      "##int": 5430,
      "##tit": 5431,
      "detail": 5432,
      "др": 5433,
      "Country": 5434,
      "её": 5435,
      "##лах": 5436,
      "##тин": 5437,
      "hoc": 5438,
      "Fun": 5439,
      "reduce": 5440,
      "преку": 5441,
      "Back": 5442,
      "EP": 5443,
      "cal": 5444,
      "hair": 5445,
      "президент": 5446,
      "1949": 5447,
      "Feb": 5448,
      "Need": 5449,
      "TI": 5450,
      "##ED": 5451,
      "##ця": 5452,
      "##RO": 5453,
      "anyone": 5454,
      "yoga": 5455,
      "260": 5456,
      "Camp": 5457,
      "##uo": 5458,
      "##well": 5459,
      "1919": 5460,
      "ещё": 5461,
      "Gli": 5462,
      "materials": 5463,
      "1917": 5464,
      "function": 5465,
      "Чтобы": 5466,
      "Rosa": 5467,
      "relevant": 5468,
      "##ового": 5469,
      "Girl": 5470,
      "Germany": 5471,
      "цей": 5472,
      "lis": 5473,
      "которого": 5474,
      "skills": 5475,
      "beta": 5476,
      "Alan": 5477,
      "##sho": 5478,
      "##ум": 5479,
      "Terra": 5480,
      "Па": 5481,
      "Mars": 5482,
      "Stadt": 5483,
      "129": 5484,
      "Unit": 5485,
      "Metal": 5486,
      "hr": 5487,
      "##ои": 5488,
      "Arena": 5489,
      "spa": 5490,
      "warm": 5491,
      "модели": 5492,
      "данных": 5493,
      "SUV": 5494,
      "PayPal": 5495,
      "##ony": 5496,
      "Michel": 5497,
      "тысяч": 5498,
      "име": 5499,
      "Stone": 5500,
      "132": 5501,
      "Off": 5502,
      "даст": 5503,
      "List": 5504,
      "February": 5505,
      "shared": 5506,
      "Solo": 5507,
      "Magic": 5508,
      "asked": 5509,
      "связи": 5510,
      "##ott": 5511,
      "Jeff": 5512,
      "##рат": 5513,
      "sound": 5514,
      "##nus": 5515,
      "##tif": 5516,
      "hd": 5517,
      "##AT": 5518,
      "стороны": 5519,
      "Local": 5520,
      "Carl": 5521,
      "choice": 5522,
      "##цию": 5523,
      "##nso": 5524,
      "ике": 5525,
      "virtual": 5526,
      "lid": 5527,
      "database": 5528,
      "##iki": 5529,
      "##тик": 5530,
      "Francis": 5531,
      "##anda": 5532,
      "1955": 5533,
      "Columbia": 5534,
      "##ava": 5535,
      "likely": 5536,
      "Ky": 5537,
      "Est": 5538,
      "##zed": 5539,
      "RSS": 5540,
      "момента": 5541,
      "Arthur": 5542,
      "Boy": 5543,
      "участие": 5544,
      "TL": 5545,
      "Way": 5546,
      "ро": 5547,
      "addition": 5548,
      "##ych": 5549,
      "SS": 5550,
      "тако": 5551,
      "##led": 5552,
      "##eb": 5553,
      "1600": 5554,
      "225": 5555,
      "daily": 5556,
      "AA": 5557,
      "Tus": 5558,
      "270": 5559,
      "spot": 5560,
      "Што": 5561,
      "1954": 5562,
      "leading": 5563,
      "##fin": 5564,
      "cases": 5565,
      "SI": 5566,
      "mol": 5567,
      "patients": 5568,
      "##fy": 5569,
      "Ok": 5570,
      "Modern": 5571,
      "Бо": 5572,
      "ны": 5573,
      "Parti": 5574,
      "смо": 5575,
      "seis": 5576,
      "##ail": 5577,
      "##еп": 5578,
      "Have": 5579,
      "Maka": 5580,
      "##sing": 5581,
      "##ус": 5582,
      "BE": 5583,
      "##бы": 5584,
      "multiple": 5585,
      "indi": 5586,
      "Ivan": 5587,
      "channel": 5588,
      "##gne": 5589,
      "##кою": 5590,
      "##pin": 5591,
      "##smo": 5592,
      "commercial": 5593,
      "station": 5594,
      "rum": 5595,
      "жил": 5596,
      "loss": 5597,
      "Те": 5598,
      "Dark": 5599,
      "мира": 5600,
      "msgstr": 5601,
      "##eer": 5602,
      "1938": 5603,
      "##eno": 5604,
      "blue": 5605,
      "Report": 5606,
      "какой": 5607,
      "label": 5608,
      "Karl": 5609,
      "Когда": 5610,
      "letter": 5611,
      "communication": 5612,
      "##menti": 5613,
      "enter": 5614,
      "rather": 5615,
      "таким": 5616,
      "Holiday": 5617,
      "информацию": 5618,
      "reste": 5619,
      "член": 5620,
      "##GA": 5621,
      "потом": 5622,
      "Cuba": 5623,
      "Arab": 5624,
      "##ё": 5625,
      "Cafe": 5626,
      "Exchange": 5627,
      "Fast": 5628,
      "##ав": 5629,
      "Jennifer": 5630,
      "Tot": 5631,
      "##alo": 5632,
      "visual": 5633,
      "diet": 5634,
      "api": 5635,
      "тебе": 5636,
      "episode": 5637,
      "demi": 5638,
      "windows": 5639,
      "Details": 5640,
      "pain": 5641,
      "##bit": 5642,
      "ende": 5643,
      "##dum": 5644,
      "meeting": 5645,
      "дана": 5646,
      "Silver": 5647,
      "dictionary": 5648,
      "такого": 5649,
      "##rra": 5650,
      "правило": 5651,
      "Ahmad": 5652,
      "Victor": 5653,
      "син": 5654,
      "Hei": 5655,
      "##bin": 5656,
      "Dio": 5657,
      "##air": 5658,
      "##шки": 5659,
      "Baba": 5660,
      "Jon": 5661,
      "##ир": 5662,
      "##kon": 5663,
      "AK": 5664,
      "Stop": 5665,
      "дан": 5666,
      "senior": 5667,
      "formation": 5668,
      "cell": 5669,
      "Clinton": 5670,
      "Sing": 5671,
      "Roger": 5672,
      "death": 5673,
      "дори": 5674,
      "lv": 5675,
      "##sie": 5676,
      "potential": 5677,
      "##хан": 5678,
      "##gem": 5679,
      "rose": 5680,
      "Charlie": 5681,
      "Khan": 5682,
      "pen": 5683,
      "applications": 5684,
      "clean": 5685,
      "тип": 5686,
      "##gat": 5687,
      "процес": 5688,
      "Sul": 5689,
      "1953": 5690,
      "Nid": 5691,
      "agenda": 5692,
      "lim": 5693,
      "которое": 5694,
      "Moore": 5695,
      "##dag": 5696,
      "Nigeria": 5697,
      "##ost": 5698,
      "менее": 5699,
      "Systems": 5700,
      "redu": 5701,
      "occasion": 5702,
      "core": 5703,
      "оно": 5704,
      "ion": 5705,
      "свет": 5706,
      "##and": 5707,
      "gave": 5708,
      "Москва": 5709,
      "Logo": 5710,
      "Who": 5711,
      "login": 5712,
      "opportunity": 5713,
      "##лась": 5714,
      "pc": 5715,
      "##Е": 5716,
      "##rem": 5717,
      "кого": 5718,
      "Sit": 5719,
      "trade": 5720,
      "##мы": 5721,
      "however": 5722,
      "F1": 5723,
      "##nder": 5724,
      "##нь": 5725,
      "court": 5726,
      "morning": 5727,
      "inch": 5728,
      "пари": 5729,
      "##aro": 5730,
      "##nca": 5731,
      "адрес": 5732,
      "cari": 5733,
      "vehicle": 5734,
      "Jay": 5735,
      "Malta": 5736,
      "полностью": 5737,
      "Xa": 5738,
      "другой": 5739,
      "feedback": 5740,
      "salon": 5741,
      "Saturday": 5742,
      "negative": 5743,
      "active": 5744,
      "exterior": 5745,
      "нашей": 5746,
      "Fernando": 5747,
      "##wen": 5748,
      "usually": 5749,
      "Run": 5750,
      "Dawn": 5751,
      "##rada": 5752,
      "FIFA": 5753,
      "inta": 5754,
      "ky": 5755,
      "1936": 5756,
      "4G": 5757,
      "eye": 5758,
      "Room": 5759,
      "найти": 5760,
      "рамках": 5761,
      "##head": 5762,
      "Venezuela": 5763,
      "Dave": 5764,
      "Nei": 5765,
      "weight": 5766,
      "neo": 5767,
      "AdWords": 5768,
      "беа": 5769,
      "resto": 5770,
      "133": 5771,
      "Double": 5772,
      "ай": 5773,
      "##ели": 5774,
      "Beauty": 5775,
      "Бог": 5776,
      "Bridge": 5777,
      "млрд": 5778,
      "праз": 5779,
      "сами": 5780,
      "закон": 5781,
      "prices": 5782,
      "Marvel": 5783,
      "##tio": 5784,
      "##нии": 5785,
      "Skype": 5786,
      "Aber": 5787,
      "Prix": 5788,
      "Abdul": 5789,
      "##day": 5790,
      "IX": 5791,
      "iPod": 5792,
      "##oro": 5793,
      "воды": 5794,
      "eg": 5795,
      "одним": 5796,
      "назар": 5797,
      "NE": 5798,
      "Поэтому": 5799,
      "власти": 5800,
      "##cal": 5801,
      "сентября": 5802,
      "Bell": 5803,
      "нов": 5804,
      "##tea": 5805,
      "Walter": 5806,
      "##nsi": 5807,
      "Lodge": 5808,
      "UTC": 5809,
      "setting": 5810,
      "About": 5811,
      "##ries": 5812,
      "Jonathan": 5813,
      "##inis": 5814,
      "entry": 5815,
      "##bre": 5816,
      "кино": 5817,
      "woman": 5818,
      "xin": 5819,
      "бесплатно": 5820,
      "Ultra": 5821,
      "##aus": 5822,
      "artist": 5823,
      "hardware": 5824,
      "Yahoo": 5825,
      "seems": 5826,
      "Kids": 5827,
      "##В": 5828,
      "##igen": 5829,
      "drop": 5830,
      "##time": 5831,
      "higher": 5832,
      "Support": 5833,
      "musical": 5834,
      "##kos": 5835,
      "Houston": 5836,
      "зараз": 5837,
      "##rel": 5838,
      "купить": 5839,
      "##ур": 5840,
      "##tina": 5841,
      "hour": 5842,
      "disk": 5843,
      "cyn": 5844,
      "##werk": 5845,
      "zero": 5846,
      "Opera": 5847,
      "insurance": 5848,
      "136": 5849,
      "Summer": 5850,
      "football": 5851,
      "Human": 5852,
      "directly": 5853,
      "1952": 5854,
      "gives": 5855,
      "Andy": 5856,
      "respect": 5857,
      "Fil": 5858,
      "деле": 5859,
      "Sem": 5860,
      "##uga": 5861,
      "Key": 5862,
      "select": 5863,
      "AL": 5864,
      "projects": 5865,
      "1937": 5866,
      "Tokyo": 5867,
      "##teen": 5868,
      "##edi": 5869,
      "##yang": 5870,
      "Mali": 5871,
      "concept": 5872,
      "##ture": 5873,
      "##DE": 5874,
      "##sion": 5875,
      "##ется": 5876,
      "documents": 5877,
      "Cook": 5878,
      "engine": 5879,
      "talent": 5880,
      "##ial": 5881,
      "felt": 5882,
      "##oy": 5883,
      "##pat": 5884,
      "##ила": 5885,
      "installation": 5886,
      "Агар": 5887,
      "Continue": 5888,
      "Monday": 5889,
      "новых": 5890,
      "industrial": 5891,
      "Week": 5892,
      "##ские": 5893,
      "Holland": 5894,
      "##rom": 5895,
      "##gos": 5896,
      "Mama": 5897,
      "Oxford": 5898,
      "safety": 5899,
      "##med": 5900,
      "##аи": 5901,
      "ME": 5902,
      "нашем": 5903,
      "included": 5904,
      "рече": 5905,
      "Mon": 5906,
      "131": 5907,
      "ды": 5908,
      "solid": 5909,
      "condition": 5910,
      "185": 5911,
      "lost": 5912,
      "oh": 5913,
      "##bh": 5914,
      "ничего": 5915,
      "string": 5916,
      "FDA": 5917,
      "##нка": 5918,
      "activities": 5919,
      "##лю": 5920,
      "uses": 5921,
      "Cape": 5922,
      "PRO": 5923,
      "increase": 5924,
      "Най": 5925,
      "нового": 5926,
      "##ис": 5927,
      "town": 5928,
      "Vis": 5929,
      "college": 5930,
      "##dit": 5931,
      "##ори": 5932,
      "Mode": 5933,
      "sh": 5934,
      "walk": 5935,
      "##ill": 5936,
      "##ments": 5937,
      "Cu": 5938,
      "##vit": 5939,
      "fri": 5940,
      "DR": 5941,
      "тул": 5942,
      "Jacob": 5943,
      "##TO": 5944,
      "dil": 5945,
      "##bang": 5946,
      "Entertainment": 5947,
      "hang": 5948,
      "Gabriel": 5949,
      "201": 5950,
      "Final": 5951,
      "peaks": 5952,
      "Romania": 5953,
      "Job": 5954,
      "139": 5955,
      "вместе": 5956,
      "Ft": 5957,
      "Bush": 5958,
      "mission": 5959,
      "##rad": 5960,
      "xxxx": 5961,
      "press": 5962,
      "тус": 5963,
      "install": 5964,
      "Владимир": 5965,
      "Puerto": 5966,
      "договор": 5967,
      "мир": 5968,
      "##cos": 5969,
      "SELECT": 5970,
      "familiar": 5971,
      "drug": 5972,
      "Yoga": 5973,
      "шул": 5974,
      "average": 5975,
      "growth": 5976,
      "recently": 5977,
      "Member": 5978,
      "##ame": 5979,
      "Want": 5980,
      "##ность": 5981,
      "##tro": 5982,
      "Cambridge": 5983,
      "юк": 5984,
      "##hal": 5985,
      "район": 5986,
      "6000": 5987,
      "streaming": 5988,
      "##eth": 5989,
      "Ваш": 5990,
      "случай": 5991,
      "lives": 5992,
      "Dance": 5993,
      "Austin": 5994,
      "KA": 5995,
      "aca": 5996,
      "throughout": 5997,
      "Nelson": 5998,
      "Tower": 5999,
      "tank": 6000,
      "kilometer": 6001,
      "##лан": 6002,
      "##inta": 6003,
      "##unda": 6004,
      "websites": 6005,
      "millions": 6006,
      "нова": 6007,
      "gold": 6008,
      "parking": 6009,
      "Monte": 6010,
      "действия": 6011,
      "##оти": 6012,
      "138": 6013,
      "Portal": 6014,
      "improve": 6015,
      "copy": 6016,
      "ultra": 6017,
      "##lina": 6018,
      "allows": 6019,
      "instead": 6020,
      "acid": 6021,
      "Oct": 6022,
      "числе": 6023,
      "loop": 6024,
      "Zu": 6025,
      "Take": 6026,
      "149": 6027,
      "2021": 6028,
      "##box": 6029,
      "##asa": 6030,
      "##ются": 6031,
      "##non": 6032,
      "VPN": 6033,
      "являются": 6034,
      "##лни": 6035,
      "Learn": 6036,
      "##lana": 6037,
      "limited": 6038,
      "editor": 6039,
      "Кроме": 6040,
      "1080p": 6041,
      "environment": 6042,
      "зв": 6043,
      "текст": 6044,
      "Clark": 6045,
      "наши": 6046,
      "##dom": 6047,
      "Barbara": 6048,
      "Mrs": 6049,
      "Koma": 6050,
      "Из": 6051,
      "##logia": 6052,
      "according": 6053,
      "око": 6054,
      "limit": 6055,
      "Oil": 6056,
      "Stockholm": 6057,
      "средств": 6058,
      "equipment": 6059,
      "клуб": 6060,
      "steel": 6061,
      "pick": 6062,
      "surface": 6063,
      "GT": 6064,
      "author": 6065,
      "Santo": 6066,
      "Ra": 6067,
      "bla": 6068,
      "Access": 6069,
      "##ette": 6070,
      "тыс": 6071,
      "Roberto": 6072,
      "WA": 6073,
      "Todo": 6074,
      "Institut": 6075,
      "##art": 6076,
      "Av": 6077,
      "alternative": 6078,
      "worth": 6079,
      "Kit": 6080,
      "Apps": 6081,
      "Trade": 6082,
      "Dragon": 6083,
      "Linda": 6084,
      "##hwa": 6085,
      "Collection": 6086,
      "Hz": 6087,
      "Privacy": 6088,
      "Wikipedia": 6089,
      "resources": 6090,
      "fix": 6091,
      "Беларусь": 6092,
      "Muslim": 6093,
      "custom": 6094,
      "mane": 6095,
      "Prime": 6096,
      "256": 6097,
      "Winter": 6098,
      "Even": 6099,
      "Kom": 6100,
      "##има": 6101,
      "эл": 6102,
      "##ними": 6103,
      "cash": 6104,
      "##lite": 6105,
      "born": 6106,
      "##ница": 6107,
      "Bruce": 6108,
      "success": 6109,
      "Style": 6110,
      "XVI": 6111,
      "##же": 6112,
      "##mel": 6113,
      "Вот": 6114,
      "Presiden": 6115,
      "CNC": 6116,
      "##ude": 6117,
      "Jam": 6118,
      "guys": 6119,
      "##ено": 6120,
      "analysis": 6121,
      "##red": 6122,
      "grade": 6123,
      "##kho": 6124,
      "##лно": 6125,
      "Municipal": 6126,
      "##ney": 6127,
      "Lei": 6128,
      "py": 6129,
      "##book": 6130,
      "Buy": 6131,
      "LTD": 6132,
      "ээ": 6133,
      "AND": 6134,
      "humor": 6135,
      "конечно": 6136,
      "stat": 6137,
      "Universal": 6138,
      "##ped": 6139,
      "hast": 6140,
      "leader": 6141,
      "wedding": 6142,
      "Putin": 6143,
      "##erte": 6144,
      "Sultan": 6145,
      "199": 6146,
      "##dem": 6147,
      "Charlotte": 6148,
      "monitor": 6149,
      "##°C": 6150,
      "##ое": 6151,
      "purpose": 6152,
      "##vna": 6153,
      "Head": 6154,
      "##lem": 6155,
      "##rg": 6156,
      "goes": 6157,
      "##ET": 6158,
      "Airlines": 6159,
      "Once": 6160,
      "Coast": 6161,
      "проблема": 6162,
      "Benjamin": 6163,
      "wee": 6164,
      "##rate": 6165,
      "consider": 6166,
      "бие": 6167,
      "##idi": 6168,
      "nis": 6169,
      "easily": 6170,
      "scene": 6171,
      "правила": 6172,
      "##nite": 6173,
      "данные": 6174,
      "137": 6175,
      "Hon": 6176,
      "GP": 6177,
      "quickly": 6178,
      "Falls": 6179,
      "##par": 6180,
      "книги": 6181,
      "##far": 6182,
      "Mara": 6183,
      "shipping": 6184,
      "Lucas": 6185,
      "##хо": 6186,
      "figure": 6187,
      "Volkswagen": 6188,
      "Illinois": 6189,
      "##лган": 6190,
      "Voit": 6191,
      "##az": 6192,
      "ras": 6193,
      "reg": 6194,
      "Magazine": 6195,
      "топ": 6196,
      "ребенка": 6197,
      "holder": 6198,
      "profit": 6199,
      "проста": 6200,
      "Така": 6201,
      "Wood": 6202,
      "FREE": 6203,
      "hear": 6204,
      "EM": 6205,
      "134": 6206,
      "##lab": 6207,
      "Ontario": 6208,
      "Mari": 6209,
      "##mir": 6210,
      "##nau": 6211,
      "##tara": 6212,
      "career": 6213,
      "Kia": 6214,
      "##pp": 6215,
      "cross": 6216,
      "experts": 6217,
      "Silva": 6218,
      "ort": 6219,
      "##EL": 6220,
      "Training": 6221,
      "planning": 6222,
      "Ferrari": 6223,
      "##oso": 6224,
      "solar": 6225,
      "##аш": 6226,
      "MC": 6227,
      "goal": 6228,
      "Italy": 6229,
      "Pacific": 6230,
      "Natural": 6231,
      "Hamilton": 6232,
      "SR": 6233,
      "Dec": 6234,
      "Northern": 6235,
      "##мын": 6236,
      "Var": 6237,
      "##vio": 6238,
      "Ние": 6239,
      "User": 6240,
      "Action": 6241,
      "Pin": 6242,
      "train": 6243,
      "##dt": 6244,
      "шоу": 6245,
      "ISBN": 6246,
      "HDMI": 6247,
      "sv": 6248,
      "##нин": 6249,
      "Angel": 6250,
      "cream": 6251,
      "Brand": 6252,
      "Phone": 6253,
      "Sang": 6254,
      "##lay": 6255,
      "Chile": 6256,
      "1933": 6257,
      "Cali": 6258,
      "##tok": 6259,
      "##tim": 6260,
      "parties": 6261,
      "330": 6262,
      "эту": 6263,
      "Ankara": 6264,
      "##ос": 6265,
      "##ках": 6266,
      "Camera": 6267,
      "1951": 6268,
      "trailer": 6269,
      "ней": 6270,
      "свое": 6271,
      "NET": 6272,
      "##ilo": 6273,
      "advice": 6274,
      "organ": 6275,
      "effective": 6276,
      "hands": 6277,
      "variety": 6278,
      "##вала": 6279,
      "масло": 6280,
      "##овые": 6281,
      "решения": 6282,
      "Gary": 6283,
      "720": 6284,
      "толкова": 6285,
      "race": 6286,
      "gets": 6287,
      "Save": 6288,
      "##turi": 6289,
      "ET": 6290,
      "Wer": 6291,
      "теперь": 6292,
      "novel": 6293,
      "дизайн": 6294,
      "Cat": 6295,
      "Sign": 6296,
      "##NE": 6297,
      "##ult": 6298,
      "BC": 6299,
      "скоро": 6300,
      "countries": 6301,
      "евра": 6302,
      "Jy": 6303,
      "CM": 6304,
      "pub": 6305,
      "##rian": 6306,
      "точки": 6307,
      "##лася": 6308,
      "FBI": 6309,
      "dock": 6310,
      "лечение": 6311,
      "вопросы": 6312,
      "##дун": 6313,
      "character": 6314,
      "480": 6315,
      "fac": 6316,
      "продукт": 6317,
      "игры": 6318,
      "beauty": 6319,
      "страны": 6320,
      "optimal": 6321,
      "Luna": 6322,
      "##эй": 6323,
      "тогда": 6324,
      "session": 6325,
      "Qui": 6326,
      "##lum": 6327,
      "##tun": 6328,
      "##aba": 6329,
      "##лек": 6330,
      "1st": 6331,
      "myself": 6332,
      "wall": 6333,
      "PHP": 6334,
      "Racing": 6335,
      "##lad": 6336,
      "##nius": 6337,
      "players": 6338,
      "street": 6339,
      "str": 6340,
      "entire": 6341,
      "recommend": 6342,
      "Mart": 6343,
      "License": 6344,
      "среди": 6345,
      "frame": 6346,
      "Diamond": 6347,
      "Christ": 6348,
      "цели": 6349,
      "147": 6350,
      "Personal": 6351,
      "Gmail": 6352,
      "Nuk": 6353,
      "Commission": 6354,
      "тук": 6355,
      "shall": 6356,
      "tech": 6357,
      "XI": 6358,
      "Howard": 6359,
      "providing": 6360,
      "##sas": 6361,
      "stare": 6362,
      "Mana": 6363,
      "Other": 6364,
      "terminal": 6365,
      "##ear": 6366,
      "##rice": 6367,
      "През": 6368,
      "remember": 6369,
      "bug": 6370,
      "Walker": 6371,
      "##nse": 6372,
      "##ив": 6373,
      "Single": 6374,
      "сила": 6375,
      "tr": 6376,
      "Julia": 6377,
      "10000": 6378,
      "прав": 6379,
      "ведь": 6380,
      "##jin": 6381,
      "costs": 6382,
      "MOD": 6383,
      "Che": 6384,
      "могли": 6385,
      "Russell": 6386,
      "первый": 6387,
      "##bot": 6388,
      "инде": 6389,
      "народ": 6390,
      "Wa": 6391,
      "##CH": 6392,
      "##дары": 6393,
      "##ление": 6394,
      "##ера": 6395,
      "direction": 6396,
      "posted": 6397,
      "##ug": 6398,
      "payment": 6399,
      "##pit": 6400,
      "input": 6401,
      "##иш": 6402,
      "wish": 6403,
      "##side": 6404,
      "##ings": 6405,
      "значи": 6406,
      "glass": 6407,
      "SL": 6408,
      "professionals": 6409,
      "Lane": 6410,
      "магазин": 6411,
      "товар": 6412,
      "саме": 6413,
      "Suites": 6414,
      "Guy": 6415,
      "GM": 6416,
      "Library": 6417,
      "cinema": 6418,
      "САД": 6419,
      "новый": 6420,
      "##stra": 6421,
      "interested": 6422,
      "programs": 6423,
      "expert": 6424,
      "techniques": 6425,
      "Mis": 6426,
      "Intel®": 6427,
      "1929": 6428,
      "##RI": 6429,
      "##out": 6430,
      "тот": 6431,
      "##HA": 6432,
      "Oliver": 6433,
      "##ym": 6434,
      "YA": 6435,
      "MHz": 6436,
      "##овых": 6437,
      "Ireland": 6438,
      "Hills": 6439,
      "Dell": 6440,
      "commerce": 6441,
      "mineral": 6442,
      "##mt": 6443,
      "Lincoln": 6444,
      "Wild": 6445,
      "interview": 6446,
      "##vet": 6447,
      "HTC": 6448,
      "Wayne": 6449,
      "сама": 6450,
      "rival": 6451,
      "feed": 6452,
      "fat": 6453,
      "aluminium": 6454,
      "##nic": 6455,
      "Made": 6456,
      "##сен": 6457,
      "##JA": 6458,
      "143": 6459,
      "Moon": 6460,
      "##tso": 6461,
      "152": 6462,
      "Trust": 6463,
      "бус": 6464,
      "soft": 6465,
      "plastic": 6466,
      "Hello": 6467,
      "##ян": 6468,
      "Color": 6469,
      "floor": 6470,
      "141": 6471,
      "diabetes": 6472,
      "playing": 6473,
      "lower": 6474,
      "курс": 6475,
      "##ск": 6476,
      "машина": 6477,
      "##cis": 6478,
      "находится": 6479,
      "Low": 6480,
      "Ms": 6481,
      "##лады": 6482,
      "Isa": 6483,
      "AMD": 6484,
      "##ep": 6485,
      "##lom": 6486,
      "##yr": 6487,
      "хотя": 6488,
      "Zum": 6489,
      "SAP": 6490,
      "dere": 6491,
      "##dora": 6492,
      "sexual": 6493,
      "##hon": 6494,
      "142": 6495,
      "##ык": 6496,
      "процесс": 6497,
      "стал": 6498,
      "Castle": 6499,
      "pt": 6500,
      "имеют": 6501,
      "##NO": 6502,
      "Body": 6503,
      "interesting": 6504,
      "##ира": 6505,
      "mamma": 6506,
      "##inde": 6507,
      "Lima": 6508,
      "kilo": 6509,
      "Bangkok": 6510,
      "embargo": 6511,
      "##CE": 6512,
      "своим": 6513,
      "##ель": 6514,
      "Only": 6515,
      "доста": 6516,
      "##ams": 6517,
      "feeling": 6518,
      "Brazil": 6519,
      "Jazz": 6520,
      "##sus": 6521,
      "interface": 6522,
      "protected": 6523,
      "necessary": 6524,
      "fresh": 6525,
      "contract": 6526,
      "Mix": 6527,
      "Robin": 6528,
      "какие": 6529,
      "##more": 6530,
      "population": 6531,
      "руб": 6532,
      "380": 6533,
      "XX": 6534,
      "register": 6535,
      "146": 6536,
      "Touch": 6537,
      "##pon": 6538,
      "Johannes": 6539,
      "##эр": 6540,
      "148": 6541,
      "WC": 6542,
      "##kai": 6543,
      "Prima": 6544,
      "benefits": 6545,
      "этим": 6546,
      "disco": 6547,
      "ordre": 6548,
      "Их": 6549,
      "Arbeit": 6550,
      "850": 6551,
      "DS": 6552,
      "Amin": 6553,
      "Harris": 6554,
      "##ева": 6555,
      "complex": 6556,
      "TT": 6557,
      "Mine": 6558,
      "эш": 6559,
      "Southern": 6560,
      "History": 6561,
      "default": 6562,
      "Nissan": 6563,
      "ones": 6564,
      "##ора": 6565,
      "Andre": 6566,
      "emi": 6567,
      "Ae": 6568,
      "##sm": 6569,
      "ability": 6570,
      "Dallas": 6571,
      "территории": 6572,
      "Matthew": 6573,
      "##ave": 6574,
      "Contact": 6575,
      "151": 6576,
      "Marine": 6577,
      "Grad": 6578,
      "highly": 6579,
      "##iy": 6580,
      "##даг": 6581,
      "SSL": 6582,
      "proc": 6583,
      "thanks": 6584,
      "Delta": 6585,
      "Steel": 6586,
      "##pita": 6587,
      "##ять": 6588,
      "camp": 6589,
      "Blu": 6590,
      "##aw": 6591,
      "205": 6592,
      "Many": 6593,
      "Case": 6594,
      "raw": 6595,
      "пам": 6596,
      "##dre": 6597,
      "Sound": 6598,
      "Renault": 6599,
      "End": 6600,
      "##oda": 6601,
      "1935": 6602,
      "Russian": 6603,
      "##ява": 6604,
      "Pi": 6605,
      "##ex": 6606,
      "Pennsylvania": 6607,
      "Christopher": 6608,
      "Steven": 6609,
      "Украины": 6610,
      "##ела": 6611,
      "dare": 6612,
      "groups": 6613,
      "помощи": 6614,
      "##hus": 6615,
      "##oun": 6616,
      "банк": 6617,
      "CP": 6618,
      "##park": 6619,
      "##тка": 6620,
      "доллар": 6621,
      "Any": 6622,
      "Italian": 6623,
      "sell": 6624,
      "Интернет": 6625,
      "##кан": 6626,
      "##ře": 6627,
      "Vincent": 6628,
      "##ae": 6629,
      "Professional": 6630,
      "рет": 6631,
      "Bruno": 6632,
      "fog": 6633,
      "SK": 6634,
      "helps": 6635,
      "нав": 6636,
      "Atlanta": 6637,
      "Major": 6638,
      "##ъ": 6639,
      "Tab": 6640,
      "genre": 6641,
      "товара": 6642,
      "##IT": 6643,
      "Ocean": 6644,
      "Wales": 6645,
      "Aga": 6646,
      "лесно": 6647,
      "MM": 6648,
      "Edge": 6649,
      "##ово": 6650,
      "производство": 6651,
      "Luke": 6652,
      "края": 6653,
      "форму": 6654,
      "должна": 6655,
      "Football": 6656,
      "мэт": 6657,
      "XII": 6658,
      "Browser": 6659,
      "ди": 6660,
      "##qi": 6661,
      "часов": 6662,
      "##run": 6663,
      "##бе": 6664,
      "ZA": 6665,
      "Rome": 6666,
      "Apartments": 6667,
      "3G": 6668,
      "magazine": 6669,
      "##чного": 6670,
      "Switch": 6671,
      "Dann": 6672,
      "##ями": 6673,
      "Corp": 6674,
      "каза": 6675,
      "TOP": 6676,
      "Records": 6677,
      "Zoo": 6678,
      "wrote": 6679,
      "##тон": 6680,
      "##tna": 6681,
      "##she": 6682,
      "##ntis": 6683,
      "tree": 6684,
      "wrong": 6685,
      "Hur": 6686,
      "Bon": 6687,
      "mom": 6688,
      "режим": 6689,
      "195": 6690,
      "quick": 6691,
      "##all": 6692,
      "Amy": 6693,
      "##BA": 6694,
      "RM": 6695,
      "temperature": 6696,
      "Об": 6697,
      "decision": 6698,
      "##рын": 6699,
      "##ento": 6700,
      "Mag": 6701,
      "navigation": 6702,
      "##kie": 6703,
      "political": 6704,
      "AV": 6705,
      "новые": 6706,
      "##unt": 6707,
      "мой": 6708,
      "mln": 6709,
      "Ross": 6710,
      "Pass": 6711,
      "пет": 6712,
      "Iron": 6713,
      "Financial": 6714,
      "##ct": 6715,
      "работе": 6716,
      "doc": 6717,
      "storage": 6718,
      "Platz": 6719,
      "##ран": 6720,
      "##ow": 6721,
      "Senior": 6722,
      "Alba": 6723,
      "degree": 6724,
      "Description": 6725,
      "##лды": 6726,
      "##рак": 6727,
      "method": 6728,
      "условиях": 6729,
      "cloud": 6730,
      "Fair": 6731,
      "Nature": 6732,
      "хар": 6733,
      "jobs": 6734,
      "balance": 6735,
      "Product": 6736,
      "##uto": 6737,
      "заказ": 6738,
      "Minister": 6739,
      "##nel": 6740,
      "##cing": 6741,
      "analyse": 6742,
      "газ": 6743,
      "месте": 6744,
      "require": 6745,
      "Field": 6746,
      "Mp4": 6747,
      "##вой": 6748,
      "##hl": 6749,
      "QR": 6750,
      "##З": 6751,
      "Forest": 6752,
      "VS": 6753,
      "Rd": 6754,
      "вообще": 6755,
      "материалов": 6756,
      "IR": 6757,
      "Ova": 6758,
      "##tera": 6759,
      "##yd": 6760,
      "1912": 6761,
      "##ít": 6762,
      "1910": 6763,
      "approach": 6764,
      "развития": 6765,
      "handle": 6766,
      "Account": 6767,
      "bomba": 6768,
      "Down": 6769,
      "##rni": 6770,
      "##шу": 6771,
      "A4": 6772,
      "счет": 6773,
      "##wer": 6774,
      "Abraham": 6775,
      "##ыр": 6776,
      "яку": 6777,
      "quo": 6778,
      "##lte": 6779,
      "SM": 6780,
      "QUE": 6781,
      "##lands": 6782,
      "Guest": 6783,
      "ремонт": 6784,
      "elements": 6785,
      "taxi": 6786,
      "кабул": 6787,
      "##ецца": 6788,
      "##ён": 6789,
      "##лж": 6790,
      "##esti": 6791,
      "Jen": 6792,
      "вариант": 6793,
      "Чи": 6794,
      "worked": 6795,
      "##eva": 6796,
      "photography": 6797,
      "Since": 6798,
      "стало": 6799,
      "##tab": 6800,
      "Jessica": 6801,
      "##зу": 6802,
      "##rim": 6803,
      "factor": 6804,
      "Seattle": 6805,
      "bg": 6806,
      "Neste": 6807,
      "Vladimir": 6808,
      "1934": 6809,
      "Mall": 6810,
      "ой": 6811,
      "156": 6812,
      "micro": 6813,
      "GMT": 6814,
      "omi": 6815,
      "роль": 6816,
      "hosting": 6817,
      "##ларда": 6818,
      "стоимость": 6819,
      "MT": 6820,
      "##ast": 6821,
      "relationship": 6822,
      "##уд": 6823,
      "ot": 6824,
      "Sala": 6825,
      "##nit": 6826,
      "structure": 6827,
      "Mia": 6828,
      "##gio": 6829,
      "Hey": 6830,
      "##ID": 6831,
      "Ela": 6832,
      "качества": 6833,
      "finish": 6834,
      "disso": 6835,
      "GO": 6836,
      "kitchen": 6837,
      "rw": 6838,
      "##ери": 6839,
      "Benz": 6840,
      "Emi": 6841,
      "Dua": 6842,
      "почему": 6843,
      "страни": 6844,
      "tap": 6845,
      "##gin": 6846,
      "наша": 6847,
      "##eze": 6848,
      "vision": 6849,
      "правильно": 6850,
      "mac": 6851,
      "Grace": 6852,
      "##gna": 6853,
      "##logy": 6854,
      "Shopping": 6855,
      "Face": 6856,
      "rue": 6857,
      "##SA": 6858,
      "signal": 6859,
      "Bella": 6860,
      "##bad": 6861,
      "giving": 6862,
      "wait": 6863,
      "##ида": 6864,
      "1928": 6865,
      "Америка": 6866,
      "Jimmy": 6867,
      "Dead": 6868,
      "PD": 6869,
      "Dom": 6870,
      "Grupo": 6871,
      "##хи": 6872,
      "decide": 6873,
      "##wat": 6874,
      "quot": 6875,
      "regional": 6876,
      "Alpha": 6877,
      "Integer": 6878,
      "##tle": 6879,
      "999": 6880,
      "actions": 6881,
      "fundamental": 6882,
      "sharing": 6883,
      "nm": 6884,
      "BB": 6885,
      "Us": 6886,
      "Ug": 6887,
      "грн": 6888,
      "permanent": 6889,
      "updates": 6890,
      "DNS": 6891,
      "1932": 6892,
      "AN": 6893,
      "Seri": 6894,
      "Stars": 6895,
      "случаи": 6896,
      "init": 6897,
      "Farm": 6898,
      "##oe": 6899,
      "215": 6900,
      "dam": 6901,
      "постоянно": 6902,
      "Видео": 6903,
      "##ont": 6904,
      "cc": 6905,
      "село": 6906,
      "большой": 6907,
      "котором": 6908,
      "Gordon": 6909,
      "commande": 6910,
      "rent": 6911,
      "Cho": 6912,
      "нея": 6913,
      "Porsche": 6914,
      "туры": 6915,
      "Dana": 6916,
      "Voice": 6917,
      "rating": 6918,
      "Кога": 6919,
      "Има": 6920,
      "##pel": 6921,
      "##ient": 6922,
      "itself": 6923,
      "Frau": 6924,
      "levels": 6925,
      "##пи": 6926,
      "##â": 6927,
      "TM": 6928,
      "deposit": 6929,
      "##km": 6930,
      "RF": 6931,
      "paid": 6932,
      "##anta": 6933,
      "##stan": 6934,
      "Enterprise": 6935,
      "##rita": 6936,
      "##gue": 6937,
      "ред": 6938,
      "вие": 6939,
      "Nun": 6940,
      "Buch": 6941,
      "Москве": 6942,
      "##vou": 6943,
      "Welcome": 6944,
      "Mer": 6945,
      "themselves": 6946,
      "Ring": 6947,
      "haven": 6948,
      "classes": 6949,
      "##sky": 6950,
      "Tesla": 6951,
      "corps": 6952,
      "153": 6953,
      "##yat": 6954,
      "##вал": 6955,
      "Quality": 6956,
      "Engineering": 6957,
      "VA": 6958,
      "эх": 6959,
      "Тэд": 6960,
      "thinking": 6961,
      "келе": 6962,
      "Shu": 6963,
      "##eed": 6964,
      "Reuters": 6965,
      "cargo": 6966,
      "Pizza": 6967,
      "весь": 6968,
      "Display": 6969,
      "ground": 6970,
      "Ort": 6971,
      "##рды": 6972,
      "MG": 6973,
      "TE": 6974,
      "##rede": 6975,
      "PAS": 6976,
      "UEFA": 6977,
      "beach": 6978,
      "Sol": 6979,
      "1924": 6980,
      "1921": 6981,
      "Size": 6982,
      "Ian": 6983,
      "##dam": 6984,
      "relation": 6985,
      "wipe": 6986,
      "##zone": 6987,
      "winter": 6988,
      "Chat": 6989,
      "типа": 6990,
      "##wal": 6991,
      "1915": 6992,
      "PSD": 6993,
      "EE": 6994,
      "1922": 6995,
      "prof": 6996,
      "работ": 6997,
      "belt": 6998,
      "CNN": 6999,
      "Following": 7000,
      "1925": 7001,
      "village": 7002,
      "chip": 7003,
      "stuff": 7004,
      "distance": 7005,
      "coach": 7006,
      "Johnny": 7007,
      "arm": 7008,
      "Date": 7009,
      "работает": 7010,
      "organisation": 7011,
      "##vik": 7012,
      "Side": 7013,
      "##die": 7014,
      "banka": 7015,
      "практически": 7016,
      "Springs": 7017,
      "supply": 7018,
      "Erik": 7019,
      "Parker": 7020,
      "Safari": 7021,
      "мире": 7022,
      "Pink": 7023,
      "##нне": 7024,
      "вами": 7025,
      "sensor": 7026,
      "bok": 7027,
      "##ement": 7028,
      "температура": 7029,
      "1913": 7030,
      "Ee": 7031,
      "Pia": 7032,
      "difficult": 7033,
      "кем": 7034,
      "cuisine": 7035,
      "##бар": 7036,
      "##йг": 7037,
      "Volvo": 7038,
      "MI": 7039,
      "sum": 7040,
      "##кы": 7041,
      "fully": 7042,
      "основа": 7043,
      "lever": 7044,
      "##nski": 7045,
      "Svi": 7046,
      "vote": 7047,
      "Source": 7048,
      "Jacques": 7049,
      "значны": 7050,
      "##qu": 7051,
      "dur": 7052,
      "кредит": 7053,
      "A1": 7054,
      "retro": 7055,
      "deep": 7056,
      "arts": 7057,
      "возможно": 7058,
      "Province": 7059,
      "ice": 7060,
      "##нт": 7061,
      "Douglas": 7062,
      "vn": 7063,
      "##yl": 7064,
      "##ors": 7065,
      "DU": 7066,
      "Этот": 7067,
      "2022": 7068,
      "сиз": 7069,
      "##bes": 7070,
      "Order": 7071,
      "163": 7072,
      "Estate": 7073,
      "Vita": 7074,
      "ret": 7075,
      "тема": 7076,
      "1931": 7077,
      "listen": 7078,
      "Multi": 7079,
      "Zealand": 7080,
      "Title": 7081,
      "##ул": 7082,
      "healthy": 7083,
      "##erne": 7084,
      "blood": 7085,
      "reach": 7086,
      "##sit": 7087,
      "Massachusetts": 7088,
      "##mina": 7089,
      "##lam": 7090,
      "hip": 7091,
      "ними": 7092,
      "Mayo": 7093,
      "partners": 7094,
      "XV": 7095,
      "##rite": 7096,
      "jazz": 7097,
      "starting": 7098,
      "pure": 7099,
      "Fl": 7100,
      "159": 7101,
      "##ob": 7102,
      "Само": 7103,
      "notes": 7104,
      "пеш": 7105,
      "Susan": 7106,
      "Sai": 7107,
      "пре": 7108,
      "причина": 7109,
      "Vila": 7110,
      "##rah": 7111,
      "##ical": 7112,
      "vast": 7113,
      "Ara": 7114,
      "response": 7115,
      "154": 7116,
      "mad": 7117,
      "##til": 7118,
      "reality": 7119,
      "Typ": 7120,
      "comfort": 7121,
      "##yer": 7122,
      "Mt": 7123,
      "##ками": 7124,
      "Japanese": 7125,
      "Oregon": 7126,
      "Dis": 7127,
      "ino": 7128,
      "##иб": 7129,
      "##вых": 7130,
      "debate": 7131,
      "##ord": 7132,
      "##Г": 7133,
      "Adams": 7134,
      "script": 7135,
      "villa": 7136,
      "##water": 7137,
      "Phoenix": 7138,
      "African": 7139,
      "Stadium": 7140,
      "sometimes": 7141,
      "Wang": 7142,
      "traditional": 7143,
      "Crystal": 7144,
      "##нные": 7145,
      "мал": 7146,
      "offline": 7147,
      "##ших": 7148,
      "AVE": 7149,
      "Pack": 7150,
      "##40": 7151,
      "ким": 7152,
      "развитие": 7153,
      "municipal": 7154,
      "Grant": 7155,
      "coup": 7156,
      "restaurants": 7157,
      "patient": 7158,
      "1923": 7159,
      "Мо": 7160,
      "НА": 7161,
      "наиболее": 7162,
      "##VA": 7163,
      "##NT": 7164,
      "Kingdom": 7165,
      "Finland": 7166,
      "##дей": 7167,
      "##тки": 7168,
      "Nina": 7169,
      "Transport": 7170,
      "minister": 7171,
      "XS": 7172,
      "decided": 7173,
      "shot": 7174,
      "wet": 7175,
      "seem": 7176,
      "162": 7177,
      "##ций": 7178,
      "Nad": 7179,
      "##AM": 7180,
      "messages": 7181,
      "Thompson": 7182,
      "released": 7183,
      "##yk": 7184,
      "тела": 7185,
      "##ware": 7186,
      "##has": 7187,
      "Melbourne": 7188,
      "merci": 7189,
      "дури": 7190,
      "##kun": 7191,
      "буду": 7192,
      "Michelle": 7193,
      "##eel": 7194,
      "размер": 7195,
      "##town": 7196,
      "Salvador": 7197,
      "став": 7198,
      "hry": 7199,
      "feet": 7200,
      "Heart": 7201,
      "kW": 7202,
      "DAN": 7203,
      "##OR": 7204,
      "##mie": 7205,
      "##вать": 7206,
      "Ctrl": 7207,
      "CIA": 7208,
      "module": 7209,
      "век": 7210,
      "Outlook": 7211,
      "homo": 7212,
      "Gu": 7213,
      "secret": 7214,
      "models": 7215,
      "факт": 7216,
      "Apr": 7217,
      "coffee": 7218,
      "Ken": 7219,
      "различных": 7220,
      "organization": 7221,
      "Tri": 7222,
      "161": 7223,
      "completely": 7224,
      "eyes": 7225,
      "##els": 7226,
      "##ator": 7227,
      "Karen": 7228,
      "руки": 7229,
      "campaign": 7230,
      "##ball": 7231,
      "420": 7232,
      "особенно": 7233,
      "##ото": 7234,
      "OR": 7235,
      "Send": 7236,
      "172": 7237,
      "root": 7238,
      "creating": 7239,
      "sms": 7240,
      "score": 7241,
      "проекта": 7242,
      "bass": 7243,
      "relative": 7244,
      "сон": 7245,
      "Format": 7246,
      "светот": 7247,
      "rich": 7248,
      "PIN": 7249,
      "spring": 7250,
      "благодаря": 7251,
      "Jorge": 7252,
      "158": 7253,
      "1926": 7254,
      "assign": 7255,
      "##aki": 7256,
      "##льных": 7257,
      "##iel": 7258,
      "Kansas": 7259,
      "act": 7260,
      "ks": 7261,
      "Potter": 7262,
      "Age": 7263,
      "Cream": 7264,
      "licence": 7265,
      "SSD": 7266,
      "Cap": 7267,
      "##ston": 7268,
      "Nama": 7269,
      "blogs": 7270,
      "157": 7271,
      "situ": 7272,
      "##льно": 7273,
      "cable": 7274,
      "Somalia": 7275,
      "##SE": 7276,
      "Fred": 7277,
      "##ими": 7278,
      "Oracle": 7279,
      "involved": 7280,
      "Nice": 7281,
      "##ular": 7282,
      "soli": 7283,
      "Sales": 7284,
      "minimal": 7285,
      "Girls": 7286,
      "##onal": 7287,
      "202": 7288,
      "cache": 7289,
      "pressure": 7290,
      "Satu": 7291,
      "memory": 7292,
      "##cus": 7293,
      "Президент": 7294,
      "Norte": 7295,
      "basic": 7296,
      "MO": 7297,
      "1927": 7298,
      "damage": 7299,
      "Austria": 7300,
      "ero": 7301,
      "pictures": 7302,
      "##PA": 7303,
      "TA": 7304,
      "agree": 7305,
      "берет": 7306,
      "Bayern": 7307,
      "creative": 7308,
      "обязательно": 7309,
      "##нее": 7310,
      "Yi": 7311,
      "##igo": 7312,
      "##usta": 7313,
      "mother": 7314,
      "ну": 7315,
      "Rev": 7316,
      "previous": 7317,
      "heard": 7318,
      "Claude": 7319,
      "всю": 7320,
      "##ets": 7321,
      "##tone": 7322,
      "Comedy": 7323,
      "##yna": 7324,
      "##zin": 7325,
      "RE": 7326,
      "Uganda": 7327,
      "##ance": 7328,
      "##тель": 7329,
      "центр": 7330,
      "Kay": 7331,
      "Kennedy": 7332,
      "##rse": 7333,
      "rus": 7334,
      "ЕС": 7335,
      "NG": 7336,
      "Сегодня": 7337,
      "стране": 7338,
      "technique": 7339,
      "Base": 7340,
      "мая": 7341,
      "##ае": 7342,
      "Dog": 7343,
      "mobi": 7344,
      "Dean": 7345,
      "дете": 7346,
      "Wil": 7347,
      "Novi": 7348,
      "effort": 7349,
      "##pur": 7350,
      "Tip": 7351,
      "investment": 7352,
      "Myanmar": 7353,
      "requirements": 7354,
      "##ост": 7355,
      "Cooper": 7356,
      "Philip": 7357,
      "пат": 7358,
      "wifi": 7359,
      "Dollar": 7360,
      "услуг": 7361,
      "economic": 7362,
      "flat": 7363,
      "многие": 7364,
      "Lyon": 7365,
      "Lawrence": 7366,
      "Maps": 7367,
      "inspiration": 7368,
      "UP": 7369,
      "##zes": 7370,
      "became": 7371,
      "Boys": 7372,
      "боку": 7373,
      "2nd": 7374,
      "sole": 7375,
      "Philadelphia": 7376,
      "Yan": 7377,
      "Fitness": 7378,
      "dress": 7379,
      "##fs": 7380,
      "Look": 7381,
      "##зы": 7382,
      "агар": 7383,
      "Sou": 7384,
      "самом": 7385,
      "ага": 7386,
      "Money": 7387,
      "instrument": 7388,
      "fill": 7389,
      "##YA": 7390,
      "hop": 7391,
      "concert": 7392,
      "TIME": 7393,
      "Johan": 7394,
      "##лт": 7395,
      "Superior": 7396,
      "Easy": 7397,
      "yu": 7398,
      "Solutions": 7399,
      "aver": 7400,
      "##KO": 7401,
      "crisis": 7402,
      "##ric": 7403,
      "разных": 7404,
      "##av": 7405,
      "самым": 7406,
      "друго": 7407,
      "##чный": 7408,
      "Trading": 7409,
      "Ice": 7410,
      "Roy": 7411,
      "одну": 7412,
      "Memorial": 7413,
      "происходит": 7414,
      "dry": 7415,
      "##bach": 7416,
      "gar": 7417,
      "reo": 7418,
      "Evans": 7419,
      "lunch": 7420,
      "Islands": 7421,
      "Stand": 7422,
      "##mate": 7423,
      "Private": 7424,
      "##ION": 7425,
      "##ною": 7426,
      "регистрации": 7427,
      "##zel": 7428,
      "Sierra": 7429,
      "##iana": 7430,
      "Hat": 7431,
      "Hunter": 7432,
      "##ches": 7433,
      "Orlando": 7434,
      "##Л": 7435,
      "176": 7436,
      "мл": 7437,
      "Credit": 7438,
      "##form": 7439,
      "Iz": 7440,
      "huge": 7441,
      "Kot": 7442,
      "wife": 7443,
      "sources": 7444,
      "Musa": 7445,
      "Haut": 7446,
      "Ukraine": 7447,
      "212": 7448,
      "##rma": 7449,
      "Spain": 7450,
      "growing": 7451,
      "Francesco": 7452,
      "##rica": 7453,
      "fana": 7454,
      "LINE": 7455,
      "##тов": 7456,
      "UNESCO": 7457,
      "moving": 7458,
      "Middle": 7459,
      "classic": 7460,
      "jus": 7461,
      "association": 7462,
      "Pay": 7463,
      "activity": 7464,
      "Тя": 7465,
      "Там": 7466,
      "##pha": 7467,
      "##бу": 7468,
      "rates": 7469,
      "Challenge": 7470,
      "##phi": 7471,
      "crime": 7472,
      "Dream": 7473,
      "sold": 7474,
      "1905": 7475,
      "370": 7476,
      "164": 7477,
      "oral": 7478,
      "chocolate": 7479,
      "agit": 7480,
      "Hyundai": 7481,
      "girls": 7482,
      "##ут": 7483,
      "Sean": 7484,
      "dark": 7485,
      "voice": 7486,
      "тих": 7487,
      "##TV": 7488,
      "Index": 7489,
      "Andreas": 7490,
      "RD": 7491,
      "efforts": 7492,
      "тез": 7493,
      "##CA": 7494,
      "Rob": 7495,
      "сезона": 7496,
      "NC": 7497,
      "Café": 7498,
      "всей": 7499,
      "давно": 7500,
      "182": 7501,
      "повторно": 7502,
      "можем": 7503,
      "Giovanni": 7504,
      "individuals": 7505,
      "##йки": 7506,
      "Ole": 7507,
      "многих": 7508,
      "XVIII": 7509,
      "2030": 7510,
      "##ssi": 7511,
      "пов": 7512,
      "Deluxe": 7513,
      "tags": 7514,
      "Wasser": 7515,
      "##ining": 7516,
      "Arte": 7517,
      "demo": 7518,
      "НАТО": 7519,
      "выше": 7520,
      "Roll": 7521,
      "ASV": 7522,
      "FB": 7523,
      "ер": 7524,
      "Division": 7525,
      "Aaron": 7526,
      "поле": 7527,
      "169": 7528,
      "Level": 7529,
      "1916": 7530,
      "Mill": 7531,
      "Бога": 7532,
      "Carter": 7533,
      "Peru": 7534,
      "##CO": 7535,
      "##чак": 7536,
      "began": 7537,
      "культуры": 7538,
      "Mate": 7539,
      "Colombia": 7540,
      "Ron": 7541,
      "Active": 7542,
      "##GO": 7543,
      "ig": 7544,
      "##sos": 7545,
      "challenge": 7546,
      "families": 7547,
      "Billy": 7548,
      "marked": 7549,
      "canal": 7550,
      "Tutti": 7551,
      "Mata": 7552,
      "Ty": 7553,
      "деятельности": 7554,
      "pack": 7555,
      "март": 7556,
      "сая": 7557,
      "Pred": 7558,
      "description": 7559,
      "систему": 7560,
      "consulta": 7561,
      "Building": 7562,
      "output": 7563,
      "татар": 7564,
      "Gallery": 7565,
      "##ческого": 7566,
      "##чные": 7567,
      "сети": 7568,
      "Number": 7569,
      "quote": 7570,
      "Performance": 7571,
      "цены": 7572,
      "Smartphone": 7573,
      "Lite": 7574,
      "178": 7575,
      "studies": 7576,
      "района": 7577,
      "##нат": 7578,
      "одно": 7579,
      "##ще": 7580,
      "##teur": 7581,
      "dot": 7582,
      "statement": 7583,
      "develop": 7584,
      "effects": 7585,
      "package": 7586,
      "morali": 7587,
      "veri": 7588,
      "##lice": 7589,
      "vice": 7590,
      "177": 7591,
      "##яти": 7592,
      "Mega": 7593,
      "##ческой": 7594,
      "designer": 7595,
      "##kg": 7596,
      "personnel": 7597,
      "translation": 7598,
      "eat": 7599,
      "Regional": 7600,
      "LP": 7601,
      "##ort": 7602,
      "##uko": 7603,
      "fruit": 7604,
      "rapid": 7605,
      "expected": 7606,
      "##win": 7607,
      "tried": 7608,
      "Mare": 7609,
      "maybe": 7610,
      "##cz": 7611,
      "##лось": 7612,
      "aid": 7613,
      "##ess": 7614,
      "theme": 7615,
      "1080": 7616,
      "context": 7617,
      "Help": 7618,
      "340": 7619,
      "дава": 7620,
      "которую": 7621,
      "correct": 7622,
      "море": 7623,
      "remove": 7624,
      "сезон": 7625,
      "desktop": 7626,
      "Путин": 7627,
      "Arabia": 7628,
      "Philippines": 7629,
      "none": 7630,
      "devices": 7631,
      "911": 7632,
      "ей": 7633,
      "##tr": 7634,
      "использования": 7635,
      "ситуации": 7636,
      "administration": 7637,
      "##WA": 7638,
      "Comments": 7639,
      "Work": 7640,
      "ROM": 7641,
      "nbsp": 7642,
      "ipa": 7643,
      "Александр": 7644,
      "получения": 7645,
      "##rou": 7646,
      "начала": 7647,
      "евро": 7648,
      "171": 7649,
      "sweet": 7650,
      "HTTP": 7651,
      "##ёт": 7652,
      "##оор": 7653,
      "2D": 7654,
      "Cisco": 7655,
      "argument": 7656,
      "Тут": 7657,
      "sofa": 7658,
      "167": 7659,
      "rom": 7660,
      "работать": 7661,
      "Lanka": 7662,
      "gone": 7663,
      "Advanced": 7664,
      "Neil": 7665,
      "responsible": 7666,
      "ALL": 7667,
      "APP": 7668,
      "1300": 7669,
      "модель": 7670,
      "doctor": 7671,
      "##чку": 7672,
      "Cover": 7673,
      "Content": 7674,
      "##ика": 7675,
      "rules": 7676,
      "Ab": 7677,
      "##DO": 7678,
      "##mp": 7679,
      "проблемы": 7680,
      "недели": 7681,
      "connect": 7682,
      "traffic": 7683,
      "Roberts": 7684,
      "updated": 7685,
      "Hitler": 7686,
      "Where": 7687,
      "Jerry": 7688,
      "Shanghai": 7689,
      "Studios": 7690,
      "Margaret": 7691,
      "Io": 7692,
      "ЕУ": 7693,
      "Elena": 7694,
      "166": 7695,
      "gre": 7696,
      "##uf": 7697,
      "290": 7698,
      "internal": 7699,
      "Али": 7700,
      "ski": 7701,
      "SRL": 7702,
      "Carlo": 7703,
      "fly": 7704,
      "##hem": 7705,
      "##gur": 7706,
      "drink": 7707,
      "комплекс": 7708,
      "истории": 7709,
      "Биз": 7710,
      "significant": 7711,
      "Tuesday": 7712,
      "##vien": 7713,
      "vy": 7714,
      "##ям": 7715,
      "income": 7716,
      "310": 7717,
      "demand": 7718,
      "результате": 7719,
      "Bernard": 7720,
      "Шумо": 7721,
      "bid": 7722,
      "opinion": 7723,
      "##тели": 7724,
      "finally": 7725,
      "Val": 7726,
      "Official": 7727,
      "wasn": 7728,
      "отношение": 7729,
      "##rant": 7730,
      "sp": 7731,
      "Maya": 7732,
      "##lee": 7733,
      "Electric": 7734,
      "teams": 7735,
      "##enti": 7736,
      "##Ä": 7737,
      "physical": 7738,
      "allo": 7739,
      "blu": 7740,
      "opening": 7741,
      "IC": 7742,
      "TAG": 7743,
      "Links": 7744,
      "Choice": 7745,
      "settings": 7746,
      "Event": 7747,
      "PO": 7748,
      "##ине": 7749,
      "##sation": 7750,
      "Нью": 7751,
      "##LL": 7752,
      "тело": 7753,
      "##ume": 7754,
      "weather": 7755,
      "Cache": 7756,
      "Sr": 7757,
      "##data": 7758,
      "prime": 7759,
      "участь": 7760,
      "Hugo": 7761,
      "Fan": 7762,
      "numbers": 7763,
      "знак": 7764,
      "massage": 7765,
      "##stein": 7766,
      "Fr": 7767,
      "planet": 7768,
      "команда": 7769,
      "##ones": 7770,
      "##tom": 7771,
      "лечения": 7772,
      "SAD": 7773,
      "Popular": 7774,
      "welcome": 7775,
      "Cal": 7776,
      "inferior": 7777,
      "Zero": 7778,
      "совсем": 7779,
      "книга": 7780,
      "ATM": 7781,
      "##ення": 7782,
      "spend": 7783,
      "Татарстан": 7784,
      "235": 7785,
      "Фото": 7786,
      "##seen": 7787,
      "Pat": 7788,
      "месяц": 7789,
      "##ровать": 7790,
      "##kit": 7791,
      "Graham": 7792,
      "wonderful": 7793,
      "Phil": 7794,
      "colors": 7795,
      "saying": 7796,
      "август": 7797,
      "Industrial": 7798,
      "Urban": 7799,
      "##rai": 7800,
      "##kes": 7801,
      "док": 7802,
      "Shah": 7803,
      "форме": 7804,
      "нашего": 7805,
      "Menu": 7806,
      "billion": 7807,
      "Tre": 7808,
      "кол": 7809,
      "txt": 7810,
      "##нки": 7811,
      "##dale": 7812,
      "##вого": 7813,
      "towards": 7814,
      "206": 7815,
      "Match": 7816,
      "NI": 7817,
      "strategy": 7818,
      "sue": 7819,
      "##tter": 7820,
      "owner": 7821,
      "PLUS": 7822,
      "кв": 7823,
      "CBD": 7824,
      "Trend": 7825,
      "orders": 7826,
      "1911": 7827,
      "188": 7828,
      "Bin": 7829,
      "poster": 7830,
      "audience": 7831,
      "Stefan": 7832,
      "заказа": 7833,
      "Hope": 7834,
      "##tine": 7835,
      "##ote": 7836,
      "##вая": 7837,
      "dollars": 7838,
      "возможности": 7839,
      "upload": 7840,
      "spent": 7841,
      "notice": 7842,
      "lots": 7843,
      "##haus": 7844,
      "Rick": 7845,
      "passion": 7846,
      "##ады": 7847,
      "##sc": 7848,
      "Article": 7849,
      "значение": 7850,
      "##ged": 7851,
      "independent": 7852,
      "Warren": 7853,
      "##rul": 7854,
      "Vitamin": 7855,
      "outdoor": 7856,
      "difference": 7857,
      "сар": 7858,
      "##lane": 7859,
      "Irish": 7860,
      "##вен": 7861,
      "##ения": 7862,
      "##hale": 7863,
      "свого": 7864,
      "rs": 7865,
      "доставки": 7866,
      "workshop": 7867,
      "албан": 7868,
      "Australian": 7869,
      "208": 7870,
      "Stati": 7871,
      "Catherine": 7872,
      "Що": 7873,
      "Front": 7874,
      "modal": 7875,
      "Af": 7876,
      "##tage": 7877,
      "Teatro": 7878,
      "##ому": 7879,
      "##рга": 7880,
      "##heim": 7881,
      "##кого": 7882,
      "##eron": 7883,
      "Hamburg": 7884,
      "switch": 7885,
      "Pod": 7886,
      "Rafael": 7887,
      "Congress": 7888,
      "стать": 7889,
      "магазина": 7890,
      "Mina": 7891,
      "successful": 7892,
      "largest": 7893,
      "кожи": 7894,
      "сен": 7895,
      "JA": 7896,
      "всяка": 7897,
      "edit": 7898,
      "Customer": 7899,
      "TD": 7900,
      "##ось": 7901,
      "партия": 7902,
      "карап": 7903,
      "developed": 7904,
      "##but": 7905,
      "Ubuntu": 7906,
      "Cameron": 7907,
      "Uni": 7908,
      "Alfred": 7909,
      "наше": 7910,
      "Josh": 7911,
      "porno": 7912,
      "гар": 7913,
      "king": 7914,
      "Buenos": 7915,
      "Table": 7916,
      "Children": 7917,
      "Trail": 7918,
      "Polo": 7919,
      "Each": 7920,
      "##kot": 7921,
      "leg": 7922,
      "Sandra": 7923,
      "##bol": 7924,
      "PH": 7925,
      "Tools": 7926,
      "174": 7927,
      "Baker": 7928,
      "copyright": 7929,
      "Col": 7930,
      "Thursday": 7931,
      "##uba": 7932,
      "8000": 7933,
      "сили": 7934,
      "зависимости": 7935,
      "222": 7936,
      "trans": 7937,
      "##ес": 7938,
      "##вся": 7939,
      "304": 7940,
      "Dame": 7941,
      "такая": 7942,
      "Иван": 7943,
      "Спасибо": 7944,
      "JE": 7945,
      "import": 7946,
      "arti": 7947,
      "Tad": 7948,
      "Glass": 7949,
      "##m2": 7950,
      "campus": 7951,
      "173": 7952,
      "rural": 7953,
      "PlayStation": 7954,
      "##pet": 7955,
      "listed": 7956,
      "Bangladesh": 7957,
      "Mobil": 7958,
      "TS": 7959,
      "разом": 7960,
      "своя": 7961,
      "characters": 7962,
      "orange": 7963,
      "Robinson": 7964,
      "GA": 7965,
      "businesses": 7966,
      "##uit": 7967,
      "доставка": 7968,
      "loved": 7969,
      "Wolf": 7970,
      "considered": 7971,
      "ave": 7972,
      "Gas": 7973,
      "орган": 7974,
      "Every": 7975,
      "ие": 7976,
      "720p": 7977,
      "selection": 7978,
      "MBA": 7979,
      "Justice": 7980,
      "здоров": 7981,
      "fee": 7982,
      "RC": 7983,
      "##band": 7984,
      "fees": 7985,
      "##yana": 7986,
      "##usa": 7987,
      "##kis": 7988,
      "salt": 7989,
      "##fra": 7990,
      "exactly": 7991,
      "соответствии": 7992,
      "##ший": 7993,
      "самые": 7994,
      "##дык": 7995,
      "Speed": 7996,
      "CI": 7997,
      "Polska": 7998,
      "XIII": 7999,
      "види": 8000,
      "Lenovo": 8001,
      "yes": 8002,
      "##лат": 8003,
      "Mun": 8004,
      "prior": 8005,
      "Franklin": 8006,
      "179": 8007,
      "эта": 8008,
      "Philippe": 8009,
      "характер": 8010,
      "##TI": 8011,
      "Например": 8012,
      "формы": 8013,
      "##lde": 8014,
      "path": 8015,
      "##zing": 8016,
      "204": 8017,
      "203": 8018,
      "Wednesday": 8019,
      "dea": 8020,
      "listing": 8021,
      "handler": 8022,
      "##care": 8023,
      "Leonardo": 8024,
      "##bak": 8025,
      "Living": 8026,
      "Taiwan": 8027,
      "Coffee": 8028,
      "Executive": 8029,
      "BY": 8030,
      "sexy": 8031,
      "##chu": 8032,
      "Valencia": 8033,
      "##жу": 8034,
      "MR": 8035,
      "disease": 8036,
      "народа": 8037,
      "Jobs": 8038,
      "##чная": 8039,
      "Wisconsin": 8040,
      "Theatre": 8041,
      "прямо": 8042,
      "ове": 8043,
      "cards": 8044,
      "Мне": 8045,
      "played": 8046,
      "definitely": 8047,
      "средство": 8048,
      "##ingu": 8049,
      "Xi": 8050,
      "авто": 8051,
      "Poker": 8052,
      "##bed": 8053,
      "anar": 8054,
      "состав": 8055,
      "##sio": 8056,
      "Quran": 8057,
      "Dei": 8058,
      "Wy": 8059,
      "holiday": 8060,
      "shown": 8061,
      "1400": 8062,
      "Stanley": 8063,
      "##sam": 8064,
      "##ета": 8065,
      "beyond": 8066,
      "##dae": 8067,
      "KE": 8068,
      "Есть": 8069,
      "самого": 8070,
      "##alt": 8071,
      "purposes": 8072,
      "forces": 8073,
      "##ада": 8074,
      "heavy": 8075,
      "составляет": 8076,
      "Sei": 8077,
      "fair": 8078,
      "bottom": 8079,
      "Army": 8080,
      "1908": 8081,
      "Wright": 8082,
      "материалы": 8083,
      "183": 8084,
      "cent": 8085,
      "Frankfurt": 8086,
      "управления": 8087,
      "accident": 8088,
      "бит": 8089,
      "##ein": 8090,
      "moments": 8091,
      "Tar": 8092,
      "187": 8093,
      "##тно": 8094,
      "lines": 8095,
      "выбрать": 8096,
      "цвета": 8097,
      "participants": 8098,
      "гр": 8099,
      "Vintage": 8100,
      "Budapest": 8101,
      "##ческих": 8102,
      "Bed": 8103,
      "west": 8104,
      "Stewart": 8105,
      "##pie": 8106,
      "joy": 8107,
      "benefit": 8108,
      "выбор": 8109,
      "Cancel": 8110,
      "wind": 8111,
      "Extra": 8112,
      "Ay": 8113,
      "усе": 8114,
      "##bon": 8115,
      "##bt": 8116,
      "метод": 8117,
      "proper": 8118,
      "##bos": 8119,
      "object": 8120,
      "Princess": 8121,
      "Four": 8122,
      "dance": 8123,
      "TX": 8124,
      "##лын": 8125,
      "189": 8126,
      "шта": 8127,
      "Marcus": 8128,
      "##ery": 8129,
      "образование": 8130,
      "square": 8131,
      "cast": 8132,
      "Romantic": 8133,
      "Aus": 8134,
      "##of": 8135,
      "arrive": 8136,
      "##ssen": 8137,
      "Nepal": 8138,
      "Cinema": 8139,
      "##IC": 8140,
      "##aria": 8141,
      "##ides": 8142,
      "claim": 8143,
      "english": 8144,
      "Gel": 8145,
      "##ory": 8146,
      "aren": 8147,
      "##dere": 8148,
      "Hilton": 8149,
      "Products": 8150,
      "##dai": 8151,
      "Harvard": 8152,
      "##вий": 8153,
      "##rre": 8154,
      "Campbell": 8155,
      "глава": 8156,
      "Тие": 8157,
      "##ned": 8158,
      "##gle": 8159,
      "understanding": 8160,
      "Очень": 8161,
      "##сез": 8162,
      "Photoshop": 8163,
      "##нски": 8164,
      "Professor": 8165,
      "Steam": 8166,
      "7000": 8167,
      "##llen": 8168,
      "Dj": 8169,
      "intr": 8170,
      "KM": 8171,
      "holo": 8172,
      "сказать": 8173,
      "pur": 8174,
      "Vision": 8175,
      "Visual": 8176,
      "VW": 8177,
      "каждого": 8178,
      "града": 8179,
      "Garcia": 8180,
      "##лей": 8181,
      "##ях": 8182,
      "Moscow": 8183,
      "зам": 8184,
      "Conference": 8185,
      "XIV": 8186,
      "Detroit": 8187,
      "HS": 8188,
      "Компания": 8189,
      "группы": 8190,
      "Lac": 8191,
      "Fit": 8192,
      "##ST": 8193,
      "##vor": 8194,
      "ла": 8195,
      "Comme": 8196,
      "guy": 8197,
      "stal": 8198,
      "destination": 8199,
      "stars": 8200,
      "275": 8201,
      "Nicolas": 8202,
      "Rank": 8203,
      "contains": 8204,
      "таки": 8205,
      "безопасности": 8206,
      "belli": 8207,
      "Yamaha": 8208,
      "tube": 8209,
      "Коли": 8210,
      "Philips": 8211,
      "Panel": 8212,
      "happen": 8213,
      "##pos": 8214,
      "planeta": 8215,
      "Marshall": 8216,
      "Алматы": 8217,
      "Praha": 8218,
      "ate": 8219,
      "сада": 8220,
      "##rali": 8221,
      "##und": 8222,
      "Zone": 8223,
      "1700": 8224,
      "Palm": 8225,
      "names": 8226,
      "181": 8227,
      "другим": 8228,
      "184": 8229,
      "heat": 8230,
      "##dite": 8231,
      "Cari": 8232,
      "##kir": 8233,
      "prea": 8234,
      "length": 8235,
      "CF": 8236,
      "push": 8237,
      "Hard": 8238,
      "rare": 8239,
      "associated": 8240,
      "cd": 8241,
      "wood": 8242,
      "Direct": 8243,
      "negli": 8244,
      "garden": 8245,
      "Images": 8246,
      "wants": 8247,
      "Аммо": 8248,
      "жени": 8249,
      "secure": 8250,
      "Rom": 8251,
      "reports": 8252,
      "BR": 8253,
      "Или": 8254,
      "Bull": 8255,
      "properties": 8256,
      "века": 8257,
      "father": 8258,
      "основе": 8259,
      "долго": 8260,
      "##lica": 8261,
      "Paolo": 8262,
      "##ines": 8263,
      "Украина": 8264,
      "##plan": 8265,
      "Leon": 8266,
      "дена": 8267,
      "alone": 8268,
      "Deutsche": 8269,
      "##pot": 8270,
      "Таким": 8271,
      "##льный": 8272,
      "AF": 8273,
      "Lab": 8274,
      "expect": 8275,
      "##чным": 8276,
      "XML": 8277,
      "##tho": 8278,
      "городе": 8279,
      "Gaming": 8280,
      "Cam": 8281,
      "carbon": 8282,
      "##ome": 8283,
      "Dublin": 8284,
      "PL": 8285,
      "##лена": 8286,
      "1100": 8287,
      "Ва": 8288,
      "затем": 8289,
      "##ани": 8290,
      "schools": 8291,
      "##uya": 8292,
      "Three": 8293,
      "grow": 8294,
      "##ческие": 8295,
      "boot": 8296,
      "банка": 8297,
      "##ization": 8298,
      "кара": 8299,
      "2x": 8300,
      "Kata": 8301,
      "Photos": 8302,
      "Ahmed": 8303,
      "Novo": 8304,
      "Grey": 8305,
      "##аж": 8306,
      "Afghanistan": 8307,
      "Micro": 8308,
      "Chief": 8309,
      "Books": 8310,
      "##чне": 8311,
      "Sp": 8312,
      "Kings": 8313,
      "Bosch": 8314,
      "##нный": 8315,
      "Republic": 8316,
      "plate": 8317,
      "variant": 8318,
      "##rach": 8319,
      "второй": 8320,
      "employees": 8321,
      "foot": 8322,
      "политика": 8323,
      "iphone": 8324,
      "imi": 8325,
      "Friends": 8326,
      "проти": 8327,
      "##ение": 8328,
      "стан": 8329,
      "UI": 8330,
      "Можно": 8331,
      "tw": 8332,
      "VM": 8333,
      "абсолютно": 8334,
      "dream": 8335,
      "Pool": 8336,
      "##for": 8337,
      "299": 8338,
      "Iraq": 8339,
      "Berg": 8340,
      "школе": 8341,
      "steps": 8342,
      "Boris": 8343,
      "Mass": 8344,
      "Select": 8345,
      "protect": 8346,
      "##tivi": 8347,
      "connection": 8348,
      "список": 8349,
      "##dot": 8350,
      "Можете": 8351,
      "Jerusalem": 8352,
      "роки": 8353,
      "1907": 8354,
      "##eye": 8355,
      "##тап": 8356,
      "немного": 8357,
      "##ME": 8358,
      "offering": 8359,
      "haute": 8360,
      "##over": 8361,
      "мали": 8362,
      "ниже": 8363,
      "Pet": 8364,
      "dialog": 8365,
      "##ючи": 8366,
      "Ph": 8367,
      "Beijing": 8368,
      "operator": 8369,
      "LAN": 8370,
      "198": 8371,
      "##bs": 8372,
      "Location": 8373,
      "rei": 8374,
      "Battle": 8375,
      "##ез": 8376,
      "pilot": 8377,
      "Tribunal": 8378,
      "Syria": 8379,
      "elegant": 8380,
      "##hip": 8381,
      "##nad": 8382,
      "brought": 8383,
      "trust": 8384,
      "Murray": 8385,
      "Petra": 8386,
      "##ized": 8387,
      "##эл": 8388,
      "##sts": 8389,
      "##fica": 8390,
      "история": 8391,
      "evidence": 8392,
      "museum": 8393,
      "imagine": 8394,
      "scale": 8395,
      "century": 8396,
      "records": 8397,
      "город": 8398,
      "край": 8399,
      "технологии": 8400,
      "Tie": 8401,
      "True": 8402,
      "nor": 8403,
      "##гон": 8404,
      "separate": 8405,
      "Moto": 8406,
      "##light": 8407,
      "##bility": 8408,
      "pink": 8409,
      "##ног": 8410,
      "##12": 8411,
      "CSS": 8412,
      "Cash": 8413,
      "толку": 8414,
      "##15": 8415,
      "opportunities": 8416,
      "changed": 8417,
      "aspect": 8418,
      "##вания": 8419,
      "Lue": 8420,
      "зависит": 8421,
      "Его": 8422,
      "##eh": 8423,
      "probable": 8424,
      "325": 8425,
      "thank": 8426,
      "library": 8427,
      "автор": 8428,
      "193": 8429,
      "207": 8430,
      "states": 8431,
      "FOR": 8432,
      "нельзя": 8433,
      "goals": 8434,
      "Бир": 8435,
      "аммо": 8436,
      "bot": 8437,
      "##rei": 8438,
      "интерес": 8439,
      "##сэн": 8440,
      "Knight": 8441,
      "бай": 8442,
      "##borg": 8443,
      "##rm": 8444,
      "false": 8445,
      "Mens": 8446,
      "Focus": 8447,
      "##зм": 8448,
      "211": 8449,
      "registered": 8450,
      "Tree": 8451,
      "usage": 8452,
      "turned": 8453,
      "tests": 8454,
      "##oz": 8455,
      "Sim": 8456,
      "1906": 8457,
      "сильно": 8458,
      "Kent": 8459,
      "Vancouver": 8460,
      "##iros": 8461,
      "Ac": 8462,
      "Jong": 8463,
      "comfortable": 8464,
      "Laptop": 8465,
      "selected": 8466,
      "##нных": 8467,
      "потребно": 8468,
      "Rama": 8469,
      "##indo": 8470,
      "должно": 8471,
      "##loa": 8472,
      "cake": 8473,
      "Secret": 8474,
      "sets": 8475,
      "##bane": 8476,
      "sec": 8477,
      "пас": 8478,
      "Tommy": 8479,
      "discussion": 8480,
      "aro": 8481,
      "teach": 8482,
      "##ray": 8483,
      "Eastern": 8484,
      "Join": 8485,
      "##tag": 8486,
      "доступ": 8487,
      "EPA": 8488,
      "Dennis": 8489,
      "formal": 8490,
      "##уп": 8491,
      "Evo": 8492,
      "телефона": 8493,
      "Temple": 8494,
      "301": 8495,
      "##lot": 8496,
      "##чин": 8497,
      "товаров": 8498,
      "воду": 8499,
      "eBay": 8500,
      "Adrian": 8501,
      "UPS": 8502,
      "##ction": 8503,
      "CAS": 8504,
      "множество": 8505,
      "announced": 8506,
      "мог": 8507,
      "wine": 8508,
      "CAD": 8509,
      "##рт": 8510,
      "Сол": 8511,
      "plugin": 8512,
      "##sma": 8513,
      "245": 8514,
      "статус": 8515,
      "Unis": 8516,
      "186": 8517,
      "offered": 8518,
      "knew": 8519,
      "##LO": 8520,
      "##гыз": 8521,
      "Centrum": 8522,
      "Sale": 8523,
      "##hme": 8524,
      "времена": 8525,
      "church": 8526,
      "fiscal": 8527,
      "Franco": 8528,
      "##Х": 8529,
      "дод": 8530,
      "##ето": 8531,
      "WWE": 8532,
      "Km": 8533,
      "Sweet": 8534,
      "хэд": 8535,
      "191": 8536,
      "München": 8537,
      "##чке": 8538,
      "##mera": 8539,
      "##фи": 8540,
      "regarding": 8541,
      "##site": 8542,
      "##KE": 8543,
      "technologies": 8544,
      "##wang": 8545,
      "NJ": 8546,
      "BP": 8547,
      "fields": 8548,
      "##ления": 8549,
      "##kla": 8550,
      "stem": 8551,
      "Много": 8552,
      "thread": 8553,
      "cars": 8554,
      "standards": 8555,
      "##nger": 8556,
      "exclusive": 8557,
      "AIDS": 8558,
      "##dha": 8559,
      "loan": 8560,
      "Engine": 8561,
      "Sub": 8562,
      "Amb": 8563,
      "активно": 8564,
      "##meter": 8565,
      "reference": 8566,
      "##name": 8567,
      "Because": 8568,
      "ride": 8569,
      "dev": 8570,
      "OH": 8571,
      "Здесь": 8572,
      "##tions": 8573,
      "документ": 8574,
      "Helen": 8575,
      "Bowl": 8576,
      "Morris": 8577,
      "Thu": 8578,
      "Bond": 8579,
      "FAQ": 8580,
      "Санкт": 8581,
      "##lov": 8582,
      "##сия": 8583,
      "Very": 8584,
      "Alaska": 8585,
      "Istanbul": 8586,
      "##ving": 8587,
      "##ског": 8588,
      "1890": 8589,
      "##pes": 8590,
      "##say": 8591,
      "Madison": 8592,
      "знаю": 8593,
      "0000": 8594,
      "думаю": 8595,
      "Punta": 8596,
      "glo": 8597,
      "страница": 8598,
      "AFP": 8599,
      "pattern": 8600,
      "alias": 8601,
      "196": 8602,
      "Craig": 8603,
      "##жен": 8604,
      "Posts": 8605,
      "advertising": 8606,
      "##ики": 8607,
      "Vor": 8608,
      "immediately": 8609,
      "extrem": 8610,
      "CCD": 8611,
      "Chance": 8612,
      "RNA": 8613,
      "engagement": 8614,
      "##скай": 8615,
      "Дали": 8616,
      "accept": 8617,
      "Government": 8618,
      "processing": 8619,
      "Larry": 8620,
      "##ggi": 8621,
      "##ration": 8622,
      "уровень": 8623,
      "asia": 8624,
      "McDonald": 8625,
      "Sila": 8626,
      "Connect": 8627,
      "##лин": 8628,
      "Vam": 8629,
      "Eye": 8630,
      "##TION": 8631,
      "довольно": 8632,
      "nt": 8633,
      "службы": 8634,
      "самый": 8635,
      "Bari": 8636,
      "Shin": 8637,
      "reasons": 8638,
      "cf": 8639,
      "ship": 8640,
      "powerful": 8641,
      "216": 8642,
      "beginning": 8643,
      "##ghi": 8644,
      "speak": 8645,
      "##аны": 8646,
      "лично": 8647,
      "школы": 8648,
      "карта": 8649,
      "Expo": 8650,
      "након": 8651,
      "cold": 8652,
      "кори": 8653,
      "avoid": 8654,
      "Perry": 8655,
      "attack": 8656,
      "LTE": 8657,
      "FR": 8658,
      "##ax": 8659,
      "Gan": 8660,
      "Tool": 8661,
      "Future": 8662,
      "Britain": 8663,
      "Dal": 8664,
      "Германия": 8665,
      "KO": 8666,
      "Interview": 8667,
      "bases": 8668,
      "lab": 8669,
      "тебя": 8670,
      "Bang": 8671,
      "лв": 8672,
      "према": 8673,
      "Paula": 8674,
      "##lyn": 8675,
      "##дон": 8676,
      "Трамп": 8677,
      "##nol": 8678,
      "##ьного": 8679,
      "##ís": 8680,
      "wear": 8681,
      "spin": 8682,
      "instant": 8683,
      "Abs": 8684,
      "##NI": 8685,
      "меньше": 8686,
      "exchange": 8687,
      "тора": 8688,
      "Deep": 8689,
      "##эг": 8690,
      "testi": 8691,
      "exact": 8692,
      "although": 8693,
      "innovation": 8694,
      "Cleveland": 8695,
      "Editor": 8696,
      "сможете": 8697,
      "району": 8698,
      "Сега": 8699,
      "##сты": 8700,
      "##vate": 8701,
      "progress": 8702,
      "gra": 8703,
      "Cultural": 8704,
      "load": 8705,
      "##овать": 8706,
      "Atlantic": 8707,
      "Wan": 8708,
      "##bie": 8709,
      "232": 8710,
      "middle": 8711,
      "justice": 8712,
      "straight": 8713,
      "ail": 8714,
      "kn": 8715,
      "Nak": 8716,
      "боз": 8717,
      "essential": 8718,
      "Death": 8719,
      "animals": 8720,
      "dates": 8721,
      "Aires": 8722,
      "мала": 8723,
      "Pixel": 8724,
      "отношения": 8725,
      "Elite": 8726,
      "##ace": 8727,
      "OFF": 8728,
      "##щий": 8729,
      "##eria": 8730,
      "universal": 8731,
      "танд": 8732,
      "ahead": 8733,
      "mega": 8734,
      "Print": 8735,
      "своими": 8736,
      "##ions": 8737,
      "actor": 8738,
      "производства": 8739,
      "1903": 8740,
      "Boeing": 8741,
      "EK": 8742,
      "manner": 8743,
      "Win": 8744,
      "procedure": 8745,
      "Greg": 8746,
      "##oga": 8747,
      "##ewe": 8748,
      "Яны": 8749,
      "easier": 8750,
      "SF": 8751,
      "generation": 8752,
      "Україна": 8753,
      "вида": 8754,
      "##zek": 8755,
      "209": 8756,
      "кафе": 8757,
      "Ser": 8758,
      "Perfect": 8759,
      "Terry": 8760,
      "okay": 8761,
      "раза": 8762,
      "named": 8763,
      "Jamie": 8764,
      "этому": 8765,
      "Serbia": 8766,
      "##oc": 8767,
      "CRM": 8768,
      "Apartment": 8769,
      "1909": 8770,
      "Сергей": 8771,
      "сказал": 8772,
      "##eas": 8773,
      "vitro": 8774,
      "значит": 8775,
      "нем": 8776,
      "Small": 8777,
      "##ovo": 8778,
      "управление": 8779,
      "##bala": 8780,
      "Learning": 8781,
      "##лый": 8782,
      "Освен": 8783,
      "himself": 8784,
      "Beta": 8785,
      "provider": 8786,
      "##hau": 8787,
      "truly": 8788,
      "Desktop": 8789,
      "##чат": 8790,
      "soy": 8791,
      "Uno": 8792,
      "Pearl": 8793,
      "TB": 8794,
      "##bay": 8795,
      "программы": 8796,
      "UFC": 8797,
      "resort": 8798,
      "journey": 8799,
      "точка": 8800,
      "носи": 8801,
      "CR": 8802,
      "NOT": 8803,
      "440": 8804,
      "##vice": 8805,
      "CH": 8806,
      "##zny": 8807,
      "самое": 8808,
      "Canyon": 8809,
      "##hun": 8810,
      "Alliance": 8811,
      "pose": 8812,
      "XVII": 8813,
      "Spanish": 8814,
      "LI": 8815,
      "Talk": 8816,
      "президента": 8817,
      "##room": 8818,
      "NHL": 8819,
      "Language": 8820,
      "Stan": 8821,
      "Profile": 8822,
      "Asian": 8823,
      "Map": 8824,
      "china": 8825,
      "техника": 8826,
      "##SI": 8827,
      "Technologies": 8828,
      "FL": 8829,
      "Mitchell": 8830,
      "Doctor": 8831,
      "driving": 8832,
      "Tempo": 8833,
      "##laan": 8834,
      "Сан": 8835,
      "машин": 8836,
      "UU": 8837,
      "Fine": 8838,
      "##LI": 8839,
      "cheap": 8840,
      "ус": 8841,
      "денег": 8842,
      "жас": 8843,
      "хам": 8844,
      "##ней": 8845,
      "Right": 8846,
      "##GE": 8847,
      "vital": 8848,
      "addresses": 8849,
      "sleep": 8850,
      "oven": 8851,
      "##ual": 8852,
      "Race": 8853,
      "Ads": 8854,
      "suit": 8855,
      "##pera": 8856,
      "Azure": 8857,
      "##view": 8858,
      "Fantasy": 8859,
      "Omega": 8860,
      "alcohol": 8861,
      "##dle": 8862,
      "tutorial": 8863,
      "##uva": 8864,
      "Spider": 8865,
      "Baca": 8866,
      "месяца": 8867,
      "Nah": 8868,
      "##чны": 8869,
      "знам": 8870,
      "Tal": 8871,
      "operation": 8872,
      "##вам": 8873,
      "##long": 8874,
      "1901": 8875,
      "карата": 8876,
      "IQ": 8877,
      "angel": 8878,
      "##ук": 8879,
      "##VE": 8880,
      "##рам": 8881,
      "##cker": 8882,
      "сколько": 8883,
      "Carmen": 8884,
      "leaders": 8885,
      "сказав": 8886,
      "##гч": 8887,
      "2025": 8888,
      "Tiger": 8889,
      "##rium": 8890,
      "seven": 8891,
      "garage": 8892,
      "1880": 8893,
      "777": 8894,
      "далее": 8895,
      "award": 8896,
      "Ethiopia": 8897,
      "military": 8898,
      "високо": 8899,
      "mono": 8900,
      "##bro": 8901,
      "##ress": 8902,
      "Sweden": 8903,
      "depi": 8904,
      "бери": 8905,
      "сот": 8906,
      "даа": 8907,
      "фотографии": 8908,
      "ns": 8909,
      "##try": 8910,
      "helping": 8911,
      "talking": 8912,
      "Masa": 8913,
      "reali": 8914,
      "обычно": 8915,
      "успешно": 8916,
      "помош": 8917,
      "prepare": 8918,
      "нее": 8919,
      "транспорт": 8920,
      "никогда": 8921,
      "serious": 8922,
      "##кен": 8923,
      "debut": 8924,
      "месяцев": 8925,
      "Vera": 8926,
      "доме": 8927,
      "Jie": 8928,
      "inclusive": 8929,
      "MAC": 8930,
      "##щите": 8931,
      "Пры": 8932,
      "Този": 8933,
      "Zimbabwe": 8934,
      "fight": 8935,
      "RA": 8936,
      "##рани": 8937,
      "RPG": 8938,
      "machines": 8939,
      "Agency": 8940,
      "##ZA": 8941,
      "useful": 8942,
      "поможет": 8943,
      "##fort": 8944,
      "ema": 8945,
      "однако": 8946,
      "Days": 8947,
      "advanced": 8948,
      "Block": 8949,
      "furniture": 8950,
      "Bog": 8951,
      "husband": 8952,
      "##isation": 8953,
      "OP": 8954,
      "##bek": 8955,
      "Eli": 8956,
      "deliver": 8957,
      "Custom": 8958,
      "counter": 8959,
      "ads": 8960,
      "говорить": 8961,
      "Barry": 8962,
      "Gall": 8963,
      "Finance": 8964,
      "##шен": 8965,
      "tone": 8966,
      "produced": 8967,
      "Яна": 8968,
      "tennis": 8969,
      "некоторые": 8970,
      "busy": 8971,
      "950": 8972,
      "265": 8973,
      "Vir": 8974,
      "PARA": 8975,
      "##hing": 8976,
      "силу": 8977,
      "поскольку": 8978,
      "Теперь": 8979,
      "definition": 8980,
      "existing": 8981,
      "моя": 8982,
      "Client": 8983,
      "Cool": 8984,
      "говорит": 8985,
      "distribution": 8986,
      "Norman": 8987,
      "##шь": 8988,
      "Drama": 8989,
      "##бен": 8990,
      "##60": 8991,
      "NYSE": 8992,
      "appear": 8993,
      "##ū": 8994,
      "flow": 8995,
      "Klein": 8996,
      "стана": 8997,
      "375": 8998,
      "Mission": 8999,
      "seat": 9000,
      "##nten": 9001,
      "##ß": 9002,
      "Portland": 9003,
      "rat": 9004,
      "charges": 9005,
      "##bury": 9006,
      "##inger": 9007,
      "Empire": 9008,
      "Keep": 9009,
      "Watson": 9010,
      "Vil": 9011,
      "Dos": 9012,
      "##enne": 9013,
      "результат": 9014,
      "experienced": 9015,
      "Championship": 9016,
      "Благодаря": 9017,
      "PhD": 9018,
      "movies": 9019,
      "##ья": 9020,
      "##gate": 9021,
      "manage": 9022,
      "Greek": 9023,
      "августа": 9024,
      "Cambodia": 9025,
      "Genesis": 9026,
      "марта": 9027,
      "села": 9028,
      "tune": 9029,
      "##ист": 9030,
      "степени": 9031,
      "электр": 9032,
      "##ети": 9033,
      "Suzuki": 9034,
      "##бай": 9035,
      "213": 9036,
      "AZ": 9037,
      "##sty": 9038,
      "##fier": 9039,
      "224": 9040,
      "dead": 9041,
      "##gina": 9042,
      "Verde": 9043,
      "известно": 9044,
      "A2": 9045,
      "Seo": 9046,
      "серед": 9047,
      "тест": 9048,
      "действие": 9049,
      "##инг": 9050,
      "fas": 9051,
      "innovative": 9052,
      "Another": 9053,
      "prevent": 9054,
      "минута": 9055,
      "##ыс": 9056,
      "##ческий": 9057,
      "зах": 9058,
      "рост": 9059,
      "sorry": 9060,
      "Scotland": 9061,
      "accord": 9062,
      "Denver": 9063,
      "##дор": 9064,
      "роботу": 9065,
      "Blues": 9066,
      "template": 9067,
      "importance": 9068,
      "души": 9069,
      "Dy": 9070,
      "lecture": 9071,
      "VAT": 9072,
      "Planet": 9073,
      "##ап": 9074,
      "Message": 9075,
      "##кова": 9076,
      "##ats": 9077,
      "скачать": 9078,
      "technical": 9079,
      "##стве": 9080,
      "##uki": 9081,
      "Manhattan": 9082,
      "allowed": 9083,
      "организма": 9084,
      "broker": 9085,
      "тал": 9086,
      "Rico": 9087,
      "номи": 9088,
      "gl": 9089,
      "218": 9090,
      "##dita": 9091,
      "зад": 9092,
      "##RY": 9093,
      "Although": 9094,
      "##шта": 9095,
      "diesel": 9096,
      "MV": 9097,
      "deals": 9098,
      "Wow": 9099,
      "##IE": 9100,
      "BN": 9101,
      "школа": 9102,
      "Rights": 9103,
      "feat": 9104,
      "223": 9105,
      "Tea": 9106,
      "##сна": 9107,
      "SPA": 9108,
      "##ello": 9109,
      "testing": 9110,
      "1904": 9111,
      "##ките": 9112,
      "договора": 9113,
      "dedicated": 9114,
      "пару": 9115,
      "##vka": 9116,
      "Alta": 9117,
      "##osta": 9118,
      "вай": 9119,
      "CBS": 9120,
      "##leni": 9121,
      "##bert": 9122,
      "Cola": 9123,
      "accounts": 9124,
      "##ders": 9125,
      "Nevada": 9126,
      "Lars": 9127,
      "Guardian": 9128,
      "сан": 9129,
      "##овая": 9130,
      "overall": 9131,
      "ра": 9132,
      "197": 9133,
      "##fia": 9134,
      "Quick": 9135,
      "Jonas": 9136,
      "##lap": 9137,
      "таба": 9138,
      "кам": 9139,
      "##cken": 9140,
      "maintenance": 9141,
      "которым": 9142,
      "Hija": 9143,
      "Российской": 9144,
      "причини": 9145,
      "src": 9146,
      "otherwise": 9147,
      "##ота": 9148,
      "##tili": 9149,
      "Anton": 9150,
      "##вав": 9151,
      "##pada": 9152,
      "Eco": 9153,
      "направите": 9154,
      "Application": 9155,
      "##late": 9156,
      "##pak": 9157,
      "помощь": 9158,
      "Sex": 9159,
      "221": 9160,
      "Salon": 9161,
      "hire": 9162,
      "214": 9163,
      "3GP": 9164,
      "annual": 9165,
      "winning": 9166,
      "хочу": 9167,
      "Vas": 9168,
      "пост": 9169,
      "mass": 9170,
      "кожа": 9171,
      "идем": 9172,
      "folder": 9173,
      "##lene": 9174,
      "Virtual": 9175,
      "Collins": 9176,
      "Kind": 9177,
      "Ultimate": 9178,
      "Error": 9179,
      "чак": 9180,
      "##tite": 9181,
      "nearly": 9182,
      "##ников": 9183,
      "Vid": 9184,
      "##без": 9185,
      "upgrade": 9186,
      "##ally": 9187,
      "Basic": 9188,
      "##11": 9189,
      "##жно": 9190,
      "##chy": 9191,
      "194": 9192,
      "адресу": 9193,
      "pieces": 9194,
      "lb": 9195,
      "plena": 9196,
      "Season": 9197,
      "appropriate": 9198,
      "policies": 9199,
      "Monster": 9200,
      "resource": 9201,
      "Тому": 9202,
      "PCR": 9203,
      "arena": 9204,
      "##hof": 9205,
      "citi": 9206,
      "Louise": 9207,
      "Ego": 9208,
      "районе": 9209,
      "нами": 9210,
      "Ти": 9211,
      "Warner": 9212,
      "вашего": 9213,
      "stu": 9214,
      "##нию": 9215,
      "##ица": 9216,
      "Сез": 9217,
      "##скую": 9218,
      "Solar": 9219,
      "264": 9220,
      "рок": 9221,
      "DM": 9222,
      "##нов": 9223,
      "Ridge": 9224,
      "##cies": 9225,
      "Step": 9226,
      "extension": 9227,
      "NW": 9228,
      "##лов": 9229,
      "##rz": 9230,
      "##щение": 9231,
      "##cka": 9232,
      "##ров": 9233,
      "Before": 9234,
      "nation": 9235,
      "##01": 9236,
      "Св": 9237,
      "Toe": 9238,
      "agents": 9239,
      "##ага": 9240,
      "Paper": 9241,
      "kb": 9242,
      "Fund": 9243,
      "gent": 9244,
      "##rol": 9245,
      "предвид": 9246,
      "бэ": 9247,
      "thoughts": 9248,
      "Joshua": 9249,
      "Наш": 9250,
      "fish": 9251,
      "##lib": 9252,
      "Medicine": 9253,
      "religion": 9254,
      "Lopez": 9255,
      "brief": 9256,
      "expression": 9257,
      "очередь": 9258,
      "Hem": 9259,
      "##nais": 9260,
      "recipe": 9261,
      "reported": 9262,
      "1870": 9263,
      "иметь": 9264,
      "Eden": 9265,
      "Plant": 9266,
      "##dest": 9267,
      "Reading": 9268,
      "##ье": 9269,
      "ER": 9270,
      "expertise": 9271,
      "база": 9272,
      "яму": 9273,
      "fullt": 9274,
      "##zation": 9275,
      "Bobby": 9276,
      "##фа": 9277,
      "assistance": 9278,
      "sor": 9279,
      "##кий": 9280,
      "JavaScript": 9281,
      "##gram": 9282,
      "Shell": 9283,
      "##ене": 9284,
      "##pho": 9285,
      "430": 9286,
      "##zzi": 9287,
      "##ode": 9288,
      "##UM": 9289,
      "##gg": 9290,
      "certainly": 9291,
      "3500": 9292,
      "Beautiful": 9293,
      "IPv6": 9294,
      "##bau": 9295,
      "метр": 9296,
      "lifestyle": 9297,
      "документов": 9298,
      "228": 9299,
      "форми": 9300,
      "LIVE": 9301,
      "##pus": 9302,
      "rooms": 9303,
      "Keith": 9304,
      "B1": 9305,
      "electric": 9306,
      "edge": 9307,
      "stone": 9308,
      "centres": 9309,
      "Carol": 9310,
      "delu": 9311,
      "noon": 9312,
      "элек": 9313,
      "Ward": 9314,
      "знаете": 9315,
      "pace": 9316,
      "Taxi": 9317,
      "##nki": 9318,
      "802": 9319,
      "рад": 9320,
      "MAX": 9321,
      "Protection": 9322,
      "Pocket": 9323,
      "birthday": 9324,
      "##sne": 9325,
      "movement": 9326,
      "##bah": 9327,
      "##чих": 9328,
      "Dutch": 9329,
      "Five": 9330,
      "Cristina": 9331,
      "Moldova": 9332,
      "Canadian": 9333,
      "##эх": 9334,
      "Cao": 9335,
      "Ethernet": 9336,
      "Subscribe": 9337,
      "primary": 9338,
      "##bis": 9339,
      "Именно": 9340,
      "Factory": 9341,
      "вчера": 9342,
      "integral": 9343,
      "##лки": 9344,
      "Wien": 9345,
      "Policy": 9346,
      "##ward": 9347,
      "##льные": 9348,
      "##кам": 9349,
      "minus": 9350,
      "##ван": 9351,
      "нашу": 9352,
      "Swift": 9353,
      "217": 9354,
      "booking": 9355,
      "Wireless": 9356,
      "gear": 9357,
      "kz": 9358,
      "Congo": 9359,
      "##rau": 9360,
      "Address": 9361,
      "Clip": 9362,
      "##llas": 9363,
      "самой": 9364,
      "становится": 9365,
      "##ars": 9366,
      "category": 9367,
      "Ima": 9368,
      "действительно": 9369,
      "daughter": 9370,
      "##MO": 9371,
      "1a": 9372,
      "канал": 9373,
      "png": 9374,
      "слово": 9375,
      "##IO": 9376,
      "Cum": 9377,
      "plot": 9378,
      "Sofia": 9379,
      "##нем": 9380,
      "Eh": 9381,
      "sar": 9382,
      "вместо": 9383,
      "гуна": 9384,
      "24h": 9385,
      "Till": 9386,
      "followed": 9387,
      "станет": 9388,
      "count": 9389,
      "Lyrics": 9390,
      "Pen": 9391,
      "Claire": 9392,
      "Tau": 9393,
      "данный": 9394,
      "##нае": 9395,
      "Kali": 9396,
      "власт": 9397,
      "##овий": 9398,
      "##gli": 9399,
      "##лет": 9400,
      "looked": 9401,
      "провести": 9402,
      "Canal": 9403,
      "wild": 9404,
      "Ellen": 9405,
      "SO": 9406,
      "##hir": 9407,
      "highest": 9408,
      "##лоо": 9409,
      "##nii": 9410,
      "equip": 9411,
      "линии": 9412,
      "День": 9413,
      "Screen": 9414,
      "selling": 9415,
      "##hou": 9416,
      "fela": 9417,
      "rem": 9418,
      "Domain": 9419,
      "##DI": 9420,
      "Ge": 9421,
      "шест": 9422,
      "Chen": 9423,
      "EPS": 9424,
      "##тел": 9425,
      "##шим": 9426,
      "##mena": 9427,
      "Jau": 9428,
      "EC": 9429,
      "##сно": 9430,
      "##ску": 9431,
      "##ыми": 9432,
      "cup": 9433,
      "телефону": 9434,
      "plasma": 9435,
      "##тите": 9436,
      "stream": 9437,
      "##тва": 9438,
      "Ajax": 9439,
      "Kon": 9440,
      "yahoo": 9441,
      "Banco": 9442,
      "kt": 9443,
      "лиц": 9444,
      "случи": 9445,
      "##лай": 9446,
      "Its": 9447,
      "далеко": 9448,
      "draw": 9449,
      "MU": 9450,
      "Cell": 9451,
      "390": 9452,
      "##iant": 9453,
      "moved": 9454,
      "Bag": 9455,
      "inde": 9456,
      "узнать": 9457,
      "Федерации": 9458,
      "makeup": 9459,
      "helpful": 9460,
      "Luxembourg": 9461,
      "lose": 9462,
      "##nay": 9463,
      "Tv": 9464,
      "3rd": 9465,
      "Broadway": 9466,
      "Bike": 9467,
      "половина": 9468,
      "Moda": 9469,
      "ip": 9470,
      "vehicles": 9471,
      "парк": 9472,
      "Ralph": 9473,
      "##wing": 9474,
      "##cke": 9475,
      "PET": 9476,
      "##ffer": 9477,
      "shape": 9478,
      "Swiss": 9479,
      "способ": 9480,
      "##рна": 9481,
      "journal": 9482,
      "песни": 9483,
      "Allt": 9484,
      "covered": 9485,
      "Pani": 9486,
      "Second": 9487,
      "##кс": 9488,
      "greater": 9489,
      "pes": 9490,
      "deem": 9491,
      "##ew": 9492,
      "sauna": 9493,
      "функции": 9494,
      "visible": 9495,
      "##off": 9496,
      "ряд": 9497,
      "Lang": 9498,
      "breakfast": 9499,
      "##kut": 9500,
      "couldn": 9501,
      "##gens": 9502,
      "словами": 9503,
      "values": 9504,
      "Kultur": 9505,
      "ATP": 9506,
      "520": 9507,
      "##ству": 9508,
      "бор": 9509,
      "##льного": 9510,
      "Arnold": 9511,
      "Alto": 9512,
      "ак": 9513,
      "##ith": 9514,
      "awesome": 9515,
      "designs": 9516,
      "##ffe": 9517,
      "Coca": 9518,
      "219": 9519,
      "таза": 9520,
      "мг": 9521,
      "Student": 9522,
      "током": 9523,
      "Track": 9524,
      "##чик": 9525,
      "calls": 9526,
      "flight": 9527,
      "Designer": 9528,
      "Turner": 9529,
      "helped": 9530,
      "dinner": 9531,
      "##ята": 9532,
      "512": 9533,
      "##nera": 9534,
      "##mah": 9535,
      "society": 9536,
      "уз": 9537,
      "свят": 9538,
      "Ari": 9539,
      "Gruppe": 9540,
      "adult": 9541,
      "Zona": 9542,
      "Due": 9543,
      "случаях": 9544,
      "Javier": 9545,
      "Item": 9546,
      "##rib": 9547,
      "##worth": 9548,
      "Nobel": 9549,
      "Mid": 9550,
      "рынке": 9551,
      "226": 9552,
      "Self": 9553,
      "Vale": 9554,
      "егер": 9555,
      "HK": 9556,
      "Stad": 9557,
      "angle": 9558,
      "изменения": 9559,
      "experiences": 9560,
      "##IR": 9561,
      "survey": 9562,
      "Captain": 9563,
      "сад": 9564,
      "adults": 9565,
      "appeared": 9566,
      "##uze": 9567,
      "Tik": 9568,
      "XXI": 9569,
      "конкурс": 9570,
      "##fur": 9571,
      "продукции": 9572,
      "##sem": 9573,
      "Только": 9574,
      "Formula": 9575,
      "Spirit": 9576,
      "Twin": 9577,
      "бере": 9578,
      "радио": 9579,
      "##льная": 9580,
      "Chapter": 9581,
      "discuss": 9582,
      "##ters": 9583,
      "gaming": 9584,
      "##тау": 9585,
      "Montana": 9586,
      "Hair": 9587,
      "Roulette": 9588,
      "Int": 9589,
      "устройства": 9590,
      "Residence": 9591,
      "Woman": 9592,
      "backup": 9593,
      "##ское": 9594,
      "Peak": 9595,
      "Ker": 9596,
      "##дам": 9597,
      "##elli": 9598,
      "##тна": 9599,
      "231": 9600,
      "Вие": 9601,
      "Shenzhen": 9602,
      "Fiat": 9603,
      "Administration": 9604,
      "BS": 9605,
      "adidas": 9606,
      "unes": 9607,
      "pride": 9608,
      "Mundo": 9609,
      "##hand": 9610,
      "##mur": 9611,
      "valid": 9612,
      "Эгер": 9613,
      "Brothers": 9614,
      "##сны": 9615,
      "Yellow": 9616,
      "желание": 9617,
      "##down": 9618,
      "whose": 9619,
      "Vice": 9620,
      "naming": 9621,
      "##hur": 9622,
      "particularly": 9623,
      "трудно": 9624,
      "extremely": 9625,
      "edition": 9626,
      "Nag": 9627,
      "##hr": 9628,
      "plug": 9629,
      "slots": 9630,
      "однос": 9631,
      "BT": 9632,
      "conference": 9633,
      "Qatar": 9634,
      "меню": 9635,
      "##пе": 9636,
      "куда": 9637,
      "##cci": 9638,
      "lyrics": 9639,
      "msgid": 9640,
      "express": 9641,
      "##ics": 9642,
      "Dual": 9643,
      "одном": 9644,
      "1902": 9645,
      "quest": 9646,
      "SAN": 9647,
      "ил": 9648,
      "mur": 9649,
      "кыргыз": 9650,
      "ваша": 9651,
      "рядом": 9652,
      "Почему": 9653,
      "Mee": 9654,
      "unsa": 9655,
      "пор": 9656,
      "WHO": 9657,
      "сред": 9658,
      "годы": 9659,
      "##ици": 9660,
      "##emi": 9661,
      "hits": 9662,
      "##цией": 9663,
      "##udi": 9664,
      "460": 9665,
      "vine": 9666,
      "ph": 9667,
      "##este": 9668,
      "ISIS": 9669,
      "wonder": 9670,
      "410": 9671,
      "##film": 9672,
      "dealer": 9673,
      "активности": 9674,
      "PU": 9675,
      "consiste": 9676,
      "Eagle": 9677,
      "шу": 9678,
      "масла": 9679,
      "первых": 9680,
      "Kam": 9681,
[...]
